{
  "version": "1.0",
  "truncation": null,
  "padding": null,
  "added_tokens": [
    {
      "id": 0,
      "content": "[UNK]",
      "single_word": false,
      "lstrip": false,
      "rstrip": false,
      "normalized": false,
      "special": true
    },
    {
      "id": 1,
      "content": "[PAD]",
      "single_word": false,
      "lstrip": false,
      "rstrip": false,
      "normalized": false,
      "special": true
    },
    {
      "id": 2,
      "content": "[BOS]",
      "single_word": false,
      "lstrip": false,
      "rstrip": false,
      "normalized": false,
      "special": true
    },
    {
      "id": 3,
      "content": "[EOS]",
      "single_word": false,
      "lstrip": false,
      "rstrip": false,
      "normalized": false,
      "special": true
    }
  ],
  "normalizer": null,
  "pre_tokenizer": {
    "type": "Whitespace"
  },
  "post_processor": null,
  "decoder": null,
  "model": {
    "type": "BPE",
    "dropout": null,
    "unk_token": "[UNK]",
    "continuing_subword_prefix": null,
    "end_of_word_suffix": null,
    "fuse_unk": false,
    "byte_fallback": false,
    "ignore_merges": false,
    "vocab": {
      "[UNK]": 0,
      "[PAD]": 1,
      "[BOS]": 2,
      "[EOS]": 3,
      "!": 4,
      "\"": 5,
      "#": 6,
      "$": 7,
      "%": 8,
      "&": 9,
      "'": 10,
      "(": 11,
      ")": 12,
      "*": 13,
      "+": 14,
      ",": 15,
      "-": 16,
      ".": 17,
      "/": 18,
      "0": 19,
      "1": 20,
      "2": 21,
      "3": 22,
      "4": 23,
      "5": 24,
      "6": 25,
      "7": 26,
      "8": 27,
      "9": 28,
      ":": 29,
      ";": 30,
      "<": 31,
      "=": 32,
      ">": 33,
      "?": 34,
      "@": 35,
      "A": 36,
      "B": 37,
      "C": 38,
      "D": 39,
      "E": 40,
      "F": 41,
      "G": 42,
      "H": 43,
      "I": 44,
      "J": 45,
      "K": 46,
      "L": 47,
      "M": 48,
      "N": 49,
      "O": 50,
      "P": 51,
      "Q": 52,
      "R": 53,
      "S": 54,
      "T": 55,
      "U": 56,
      "V": 57,
      "W": 58,
      "X": 59,
      "Y": 60,
      "Z": 61,
      "[": 62,
      "\\": 63,
      "]": 64,
      "^": 65,
      "_": 66,
      "`": 67,
      "a": 68,
      "b": 69,
      "c": 70,
      "d": 71,
      "e": 72,
      "f": 73,
      "g": 74,
      "h": 75,
      "i": 76,
      "j": 77,
      "k": 78,
      "l": 79,
      "m": 80,
      "n": 81,
      "o": 82,
      "p": 83,
      "q": 84,
      "r": 85,
      "s": 86,
      "t": 87,
      "u": 88,
      "v": 89,
      "w": 90,
      "x": 91,
      "y": 92,
      "z": 93,
      "{": 94,
      "}": 95,
      "~": 96,
      "": 97,
      "": 98,
      "": 99,
      "¡": 100,
      "¢": 101,
      "£": 102,
      "¤": 103,
      "¥": 104,
      "¦": 105,
      "§": 106,
      "¨": 107,
      "©": 108,
      "«": 109,
      "¬": 110,
      "­": 111,
      "®": 112,
      "¯": 113,
      "°": 114,
      "±": 115,
      "²": 116,
      "³": 117,
      "´": 118,
      "µ": 119,
      "¶": 120,
      "·": 121,
      "¸": 122,
      "¹": 123,
      "º": 124,
      "»": 125,
      "¼": 126,
      "½": 127,
      "¾": 128,
      "¿": 129,
      "Á": 130,
      "Â": 131,
      "Ã": 132,
      "Ä": 133,
      "Å": 134,
      "Æ": 135,
      "Ç": 136,
      "È": 137,
      "É": 138,
      "Ì": 139,
      "Í": 140,
      "Î": 141,
      "Ï": 142,
      "Ð": 143,
      "Ñ": 144,
      "Ó": 145,
      "Ô": 146,
      "Õ": 147,
      "Ö": 148,
      "×": 149,
      "Ø": 150,
      "Ú": 151,
      "Ü": 152,
      "Ý": 153,
      "ß": 154,
      "à": 155,
      "á": 156,
      "â": 157,
      "ã": 158,
      "ä": 159,
      "å": 160,
      "æ": 161,
      "ç": 162,
      "è": 163,
      "é": 164,
      "ê": 165,
      "ë": 166,
      "ì": 167,
      "í": 168,
      "î": 169,
      "ï": 170,
      "ð": 171,
      "ñ": 172,
      "ò": 173,
      "ó": 174,
      "ô": 175,
      "õ": 176,
      "ö": 177,
      "ø": 178,
      "ú": 179,
      "û": 180,
      "ü": 181,
      "ý": 182,
      "Ā": 183,
      "ā": 184,
      "ă": 185,
      "ą": 186,
      "ć": 187,
      "Č": 188,
      "č": 189,
      "ē": 190,
      "Ė": 191,
      "ė": 192,
      "Ę": 193,
      "ę": 194,
      "ě": 195,
      "ğ": 196,
      "ħ": 197,
      "Ī": 198,
      "ī": 199,
      "ĭ": 200,
      "İ": 201,
      "ı": 202,
      "ķ": 203,
      "ļ": 204,
      "Ł": 205,
      "ł": 206,
      "ń": 207,
      "ň": 208,
      "Ō": 209,
      "ō": 210,
      "ŏ": 211,
      "ő": 212,
      "œ": 213,
      "Ř": 214,
      "ř": 215,
      "Ś": 216,
      "ś": 217,
      "Ş": 218,
      "ş": 219,
      "Š": 220,
      "š": 221,
      "ţ": 222,
      "ť": 223,
      "Ŧ": 224,
      "Ū": 225,
      "ū": 226,
      "ŭ": 227,
      "ů": 228,
      "ű": 229,
      "ų": 230,
      "ź": 231,
      "Ž": 232,
      "ž": 233,
      "ș": 234,
      "ț": 235,
      "̊": 236,
      "Ί": 237,
      "ΐ": 238,
      "Α": 239,
      "Β": 240,
      "Γ": 241,
      "Δ": 242,
      "Ε": 243,
      "Η": 244,
      "Ι": 245,
      "Κ": 246,
      "Λ": 247,
      "Μ": 248,
      "Ν": 249,
      "Ο": 250,
      "Π": 251,
      "Ρ": 252,
      "Σ": 253,
      "Τ": 254,
      "Υ": 255,
      "Φ": 256,
      "Χ": 257,
      "Ω": 258,
      "Ϊ": 259,
      "ά": 260,
      "έ": 261,
      "ή": 262,
      "ί": 263,
      "α": 264,
      "β": 265,
      "γ": 266,
      "δ": 267,
      "ε": 268,
      "η": 269,
      "θ": 270,
      "ι": 271,
      "κ": 272,
      "λ": 273,
      "μ": 274,
      "ν": 275,
      "ξ": 276,
      "ο": 277,
      "π": 278,
      "ρ": 279,
      "ς": 280,
      "σ": 281,
      "τ": 282,
      "υ": 283,
      "φ": 284,
      "χ": 285,
      "ψ": 286,
      "ω": 287,
      "ό": 288,
      "ύ": 289,
      "А": 290,
      "Т": 291,
      "Ч": 292,
      "а": 293,
      "б": 294,
      "в": 295,
      "д": 296,
      "е": 297,
      "ж": 298,
      "и": 299,
      "й": 300,
      "к": 301,
      "л": 302,
      "м": 303,
      "н": 304,
      "о": 305,
      "п": 306,
      "р": 307,
      "с": 308,
      "т": 309,
      "ф": 310,
      "ш": 311,
      "ъ": 312,
      "я": 313,
      "฀": 314,
      "‑": 315,
      "–": 316,
      "—": 317,
      "‘": 318,
      "’": 319,
      "‚": 320,
      "“": 321,
      "”": 322,
      "‡": 323,
      "•": 324,
      "…": 325,
      "′": 326,
      "″": 327,
      "⁴": 328,
      "⁵": 329,
      "⁶": 330,
      "⁻": 331,
      "€": 332,
      "⅓": 333,
      "⅔": 334,
      "⅕": 335,
      "⅖": 336,
      "⅗": 337,
      "⅘": 338,
      "⅙": 339,
      "←": 340,
      "→": 341,
      "−": 342,
      "∕": 343,
      "√": 344,
      "∣": 345,
      "≠": 346,
      "≤": 347,
      "≥": 348,
      "⌈": 349,
      "⌉": 350,
      "⌊": 351,
      "⌋": 352,
      "■": 353,
      "●": 354,
      "☎": 355,
      "✔": 356,
      "➡": 357,
      "か": 358,
      "な": 359,
      "字": 360,
      "漢": 361,
      "": 362,
      "": 363,
      "": 364,
      "": 365,
      "": 366,
      "": 367,
      "": 368,
      "": 369,
      "": 370,
      "": 371,
      "": 372,
      "": 373,
      "": 374,
      "": 375,
      "": 376,
      "": 377,
      "": 378,
      "": 379,
      "": 380,
      "": 381,
      "": 382,
      "": 383,
      "ﬁ": 384,
      "�": 385,
      "th": 386,
      "on": 387,
      "in": 388,
      "the": 389,
      "ti": 390,
      "an": 391,
      "re": 392,
      "er": 393,
      "or": 394,
      "en": 395,
      "of": 396,
      "al": 397,
      "es": 398,
      "is": 399,
      "le": 400,
      "tion": 401,
      "at": 402,
      "ro": 403,
      "to": 404,
      "ar": 405,
      "ed": 406,
      "ing": 407,
      "and": 408,
      "ic": 409,
      "ent": 410,
      "it": 411,
      "ou": 412,
      "ation": 413,
      "as": 414,
      "ec": 415,
      "ac": 416,
      "tic": 417,
      "om": 418,
      "all": 419,
      "ion": 420,
      "pro": 421,
      "ment": 422,
      "sh": 423,
      "for": 424,
      "Ar": 425,
      "be": 426,
      "Artic": 427,
      "..": 428,
      "il": 429,
      "ve": 430,
      "Article": 431,
      "he": 432,
      "st": 433,
      "su": 434,
      "em": 435,
      "shall": 436,
      "ap": 437,
      "un": 438,
      "ag": 439,
      "con": 440,
      "se": 441,
      "de": 442,
      "ce": 443,
      "pe": 444,
      "ol": 445,
      "omm": 446,
      "ith": 447,
      "me": 448,
      "ter": 449,
      "ul": 450,
      "pl": 451,
      "ate": 452,
      "with": 453,
      "res": 454,
      "ad": 455,
      "ow": 456,
      "by": 457,
      "oun": 458,
      "op": 459,
      "ri": 460,
      "ex": 461,
      "ber": 462,
      "ta": 463,
      "The": 464,
      "ts": 465,
      "uro": 466,
      "ot": 467,
      "ma": 468,
      "im": 469,
      "ch": 470,
      "ur": 471,
      "St": 472,
      "Euro": 473,
      "id": 474,
      "par": 475,
      "Comm": 476,
      "Europe": 477,
      "ity": 478,
      "ember": 479,
      "sion": 480,
      "ir": 481,
      "European": 482,
      "der": 483,
      "ra": 484,
      "20": 485,
      "ig": 486,
      "qu": 487,
      "red": 488,
      "wh": 489,
      "ted": 490,
      "Un": 491,
      "Member": 492,
      "ver": 493,
      "ess": 494,
      "....": 495,
      "ab": 496,
      "if": 497,
      "et": 498,
      "ance": 499,
      "us": 500,
      "por": 501,
      "ud": 502,
      "not": 503,
      "that": 504,
      "our": 505,
      "te": 506,
      "acc": 507,
      "po": 508,
      "bl": 509,
      "Re": 510,
      "ission": 511,
      "oc": 512,
      "prov": 513,
      "end": 514,
      "this": 515,
      "ates": 516,
      "Coun": 517,
      "cil": 518,
      "ord": 519,
      "Council": 520,
      "ther": 521,
      "are": 522,
      "In": 523,
      "ure": 524,
      "ting": 525,
      "ial": 526,
      "ties": 527,
      "od": 528,
      "ay": 529,
      "per": 530,
      "ision": 531,
      "Commission": 532,
      "rom": 533,
      "tions": 534,
      "tr": 535,
      "ly": 536,
      "com": 537,
      "ia": 538,
      "Union": 539,
      "age": 540,
      "ments": 541,
      "ations": 542,
      "cl": 543,
      "from": 544,
      "tive": 545,
      "am": 546,
      "ich": 547,
      "States": 548,
      "uc": 549,
      "rap": 550,
      "co": 551,
      "ary": 552,
      "which": 553,
      "pec": 554,
      "ish": 555,
      "ew": 556,
      "form": 557,
      "raph": 558,
      "ld": 559,
      "ref": 560,
      "ile": 561,
      "port": 562,
      "di": 563,
      "appl": 564,
      "rec": 565,
      "reat": 566,
      "ren": 567,
      "um": 568,
      "may": 569,
      "gul": 570,
      "la": 571,
      "ple": 572,
      "able": 573,
      "Par": 574,
      "its": 575,
      "agraph": 576,
      "jec": 577,
      "out": 578,
      "ist": 579,
      "ies": 580,
      "ard": 581,
      "fin": 582,
      "paragraph": 583,
      "ke": 584,
      "si": 585,
      "up": 586,
      "fic": 587,
      "under": 588,
      "accord": 589,
      "ant": 590,
      "ational": 591,
      "ore": 592,
      "200": 593,
      "el": 594,
      "sub": 595,
      "ould": 596,
      "ave": 597,
      "own": 598,
      "Treat": 599,
      "........": 600,
      "lec": 601,
      "ities": 602,
      "Treaty": 603,
      "tu": 604,
      "other": 605,
      "cer": 606,
      "ge": 607,
      "erred": 608,
      "dec": 609,
      "EC": 610,
      "anc": 611,
      "ers": 612,
      "tiv": 613,
      "lia": 614,
      "ans": 615,
      "accordance": 616,
      "II": 617,
      "No": 618,
      "Regul": 619,
      "here": 620,
      "isions": 621,
      "fol": 622,
      "Con": 623,
      "int": 624,
      "pu": 625,
      "ated": 626,
      "vel": 627,
      "ser": 628,
      "ount": 629,
      "au": 630,
      "Parlia": 631,
      "pos": 632,
      "referred": 633,
      "Regulation": 634,
      "ob": 635,
      "low": 636,
      "ree": 637,
      "Parliament": 638,
      "af": 639,
      "ork": 640,
      "oper": 641,
      "duc": 642,
      "any": 643,
      "Pro": 644,
      "pr": 645,
      "gh": 646,
      "national": 647,
      "ose": 648,
      "comm": 649,
      "proc": 650,
      "ach": 651,
      "min": 652,
      "ram": 653,
      "cont": 654,
      "adop": 655,
      "ame": 656,
      "ass": 657,
      "blish": 658,
      "State": 659,
      "ures": 660,
      "19": 661,
      "spec": 662,
      "ip": 663,
      "gram": 664,
      "Commun": 665,
      "EU": 666,
      "act": 667,
      "work": 668,
      "pri": 669,
      "ef": 670,
      "Ch": 671,
      "sti": 672,
      "requ": 673,
      "av": 674,
      "ind": 675,
      "ied": 676,
      "und": 677,
      "og": 678,
      "we": 679,
      "meas": 680,
      "their": 681,
      "201": 682,
      "sec": 683,
      "str": 684,
      "mar": 685,
      "igh": 686,
      "Th": 687,
      "man": 688,
      "ase": 689,
      "plement": 690,
      "ill": 691,
      "bu": 692,
      "esta": 693,
      "ear": 694,
      "thor": 695,
      "establish": 696,
      "leg": 697,
      "reg": 698,
      "pre": 699,
      "ign": 700,
      "ble": 701,
      "applic": 702,
      "stitu": 703,
      "nec": 704,
      "est": 705,
      "ourt": 706,
      "rel": 707,
      "have": 708,
      "produc": 709,
      "partic": 710,
      "tain": 711,
      "inter": 712,
      "ty": 713,
      "over": 714,
      "follow": 715,
      "such": 716,
      "one": 717,
      "provisions": 718,
      "incl": 719,
      "blic": 720,
      "ain": 721,
      "sup": 722,
      "ific": 723,
      "should": 724,
      "Court": 725,
      "...": 726,
      "An": 727,
      "ide": 728,
      "val": 729,
      "ext": 730,
      "concer": 731,
      "set": 732,
      "dis": 733,
      "ory": 734,
      "no": 735,
      "down": 736,
      "concern": 737,
      "tec": 738,
      "mo": 739,
      "ice": 740,
      "has": 741,
      "implement": 742,
      "proced": 743,
      "pres": 744,
      "10": 745,
      "so": 746,
      "inform": 747,
      "ener": 748,
      "measures": 749,
      "Community": 750,
      "financ": 751,
      "rit": 752,
      "ue": 753,
      "ine": 754,
      "tak": 755,
      "program": 756,
      "author": 757,
      "you": 758,
      "sul": 759,
      "public": 760,
      "ject": 761,
      "ating": 762,
      "vi": 763,
      "provid": 764,
      "mark": 765,
      "where": 766,
      "les": 767,
      "within": 768,
      "pur": 769,
      "ms": 770,
      "ON": 771,
      "pol": 772,
      "plac": 773,
      "enti": 774,
      "ous": 775,
      "Ad": 776,
      "order": 777,
      "Dec": 778,
      "TI": 779,
      "ven": 780,
      "col": 781,
      "ail": 782,
      "following": 783,
      "ors": 784,
      "into": 785,
      "ust": 786,
      "gr": 787,
      "yst": 788,
      "ER": 789,
      "12": 790,
      "),": 791,
      "enc": 792,
      "appro": 793,
      "mon": 794,
      "ystem": 795,
      "inc": 796,
      "after": 797,
      "velop": 798,
      "file": 799,
      "bud": 800,
      "bas": 801,
      "ES": 802,
      "ll": 803,
      "acts": 804,
      "TH": 805,
      "ence": 806,
      "fec": 807,
      "ks": 808,
      "will": 809,
      "En": 810,
      "bet": 811,
      "ie": 812,
      "trans": 813,
      "tives": 814,
      "necess": 815,
      "new": 816,
      "information": 817,
      "condi": 818,
      "irst": 819,
      "lo": 820,
      "includ": 821,
      "Se": 822,
      "sc": 823,
      "year": 824,
      "ular": 825,
      "requi": 826,
      "ange": 827,
      "ult": 828,
      "13": 829,
      "ules": 830,
      "necessary": 831,
      "ress": 832,
      "righ": 833,
      "gu": 834,
      "sure": 835,
      "................": 836,
      "ally": 837,
      "pon": 838,
      "iz": 839,
      "provided": 840,
      "bo": 841,
      "particular": 842,
      "ween": 843,
      "qual": 844,
      "those": 845,
      "operation": 846,
      "financial": 847,
      "As": 848,
      "get": 849,
      "entr": 850,
      "eren": 851,
      "ne": 852,
      "between": 853,
      "pen": 854,
      "develop": 855,
      "ive": 856,
      "tee": 857,
      "omic": 858,
      "procedure": 859,
      "rect": 860,
      "conditions": 861,
      "De": 862,
      "overn": 863,
      "Sh": 864,
      "apply": 865,
      "ries": 866,
      "ast": 867,
      "Ac": 868,
      "peri": 869,
      "fore": 870,
      "add": 871,
      "ack": 872,
      "This": 873,
      ").": 874,
      "ified": 875,
      "appropri": 876,
      "law": 877,
      "go": 878,
      "gro": 879,
      "objec": 880,
      "take": 881,
      "polic": 882,
      "acting": 883,
      "serv": 884,
      "THE": 885,
      "been": 886,
      "pend": 887,
      "iti": 888,
      "including": 889,
      "ages": 890,
      "system": 891,
      "propos": 892,
      "ings": 893,
      "AN": 894,
      "ural": 895,
      "ann": 896,
      "urren": 897,
      "11": 898,
      "selec": 899,
      "ility": 900,
      "eneral": 901,
      "ority": 902,
      "count": 903,
      "application": 904,
      "institu": 905,
      "AR": 906,
      "ical": 907,
      "do": 908,
      "IN": 909,
      "respec": 910,
      "amend": 911,
      "ird": 912,
      "arch": 913,
      "than": 914,
      "period": 915,
      "ut": 916,
      "ittee": 917,
      "usto": 918,
      "present": 919,
      "tional": 920,
      "org": 921,
      "ces": 922,
      "son": 923,
      "tice": 924,
      "rules": 925,
      "ise": 926,
      "li": 927,
      "use": 928,
      "third": 929,
      "It": 930,
      "decision": 931,
      "laid": 932,
      "appropriate": 933,
      "view": 934,
      "part": 935,
      "III": 936,
      "pay": 937,
      "ribu": 938,
      "concerned": 939,
      "ove": 940,
      "led": 941,
      "Articles": 942,
      "ual": 943,
      "first": 944,
      "ensure": 945,
      "lar": 946,
      "inte": 947,
      "ata": 948,
      "ocu": 949,
      "fil": 950,
      "time": 951,
      "Ex": 952,
      "18": 953,
      "can": 954,
      "cons": 955,
      "specific": 956,
      "more": 957,
      "adopted": 958,
      "16": 959,
      "support": 960,
      "mat": 961,
      "econ": 962,
      "Add": 963,
      "adopt": 964,
      "member": 965,
      "person": 966,
      "ok": 967,
      "maj": 968,
      "cri": 969,
      "00": 970,
      "activ": 971,
      "fa": 972,
      "ong": 973,
      "effec": 974,
      "ica": 975,
      "pa": 976,
      "common": 977,
      "countries": 978,
      "regard": 979,
      "mes": 980,
      "point": 981,
      "For": 982,
      "ocial": 983,
      "lay": 984,
      "anis": 985,
      "15": 986,
      "inv": 987,
      "compl": 988,
      "Im": 989,
      "unc": 990,
      "ges": 991,
      "they": 992,
      "also": 993,
      "rou": 994,
      "jud": 995,
      "ful": 996,
      "dra": 997,
      "mer": 998,
      "umber": 999,
      "market": 1000,
      "rough": 1001,
      "budget": 1002,
      "14": 1003,
      "ustice": 1004,
      "agree": 1005,
      "establishing": 1006,
      "hn": 1007,
      "products": 1008,
      "proposal": 1009,
      "pow": 1010,
      "cooperation": 1011,
      "ond": 1012,
      "action": 1013,
      "ited": 1014,
      "fr": 1015,
      "If": 1016,
      "respon": 1017,
      "nal": 1018,
      "ight": 1019,
      "before": 1020,
      "car": 1021,
      "resid": 1022,
      "land": 1023,
      "curren": 1024,
      "implementation": 1025,
      "ank": 1026,
      "level": 1027,
      "pt": 1028,
      "placed": 1029,
      "tific": 1030,
      "majority": 1031,
      "17": 1032,
      "ateg": 1033,
      "Selec": 1034,
      "des": 1035,
      "word": 1036,
      "made": 1037,
      "consul": 1038,
      "rame": 1039,
      "account": 1040,
      "each": 1041,
      "development": 1042,
      "date": 1043,
      "ved": 1044,
      "New": 1045,
      "there": 1046,
      "pursu": 1047,
      "direct": 1048,
      "Justice": 1049,
      "Ann": 1050,
      "custo": 1051,
      "compe": 1052,
      "ices": 1053,
      "Show": 1054,
      "name": 1055,
      "policy": 1056,
      "du": 1057,
      "Committee": 1058,
      "only": 1059,
      "lev": 1060,
      "when": 1061,
      "mess": 1062,
      "plo": 1063,
      "ound": 1064,
      "read": 1065,
      "termin": 1066,
      "ror": 1067,
      "EN": 1068,
      "objectives": 1069,
      "OF": 1070,
      "case": 1071,
      "To": 1072,
      "feren": 1073,
      "regul": 1074,
      "protec": 1075,
      "ption": 1076,
      "indow": 1077,
      "list": 1078,
      "ative": 1079,
      "olu": 1080,
      "Fund": 1081,
      "tw": 1082,
      "Di": 1083,
      "tra": 1084,
      "lim": 1085,
      "IS": 1086,
      "Republic": 1087,
      "techn": 1088,
      "Au": 1089,
      "ell": 1090,
      "iled": 1091,
      "sible": 1092,
      "docu": 1093,
      "unction": 1094,
      "Annex": 1095,
      "fici": 1096,
      "25": 1097,
      "lin": 1098,
      "force": 1099,
      "require": 1100,
      "ters": 1101,
      "these": 1102,
      "23": 1103,
      "cap": 1104,
      "199": 1105,
      "members": 1106,
      "Bo": 1107,
      "reate": 1108,
      "ramework": 1109,
      "economic": 1110,
      "region": 1111,
      "organis": 1112,
      "dom": 1113,
      "defin": 1114,
      "data": 1115,
      "exce": 1116,
      "Su": 1117,
      "selected": 1118,
      "2013": 1119,
      "cal": 1120,
      "approv": 1121,
      "tocol": 1122,
      "activities": 1123,
      "programme": 1124,
      "RO": 1125,
      "Presid": 1126,
      "resul": 1127,
      "loc": 1128,
      "folder": 1129,
      "entral": 1130,
      "RE": 1131,
      "open": 1132,
      "territ": 1133,
      "conf": 1134,
      "relev": 1135,
      "institutions": 1136,
      "ents": 1137,
      "contribu": 1138,
      "means": 1139,
      "used": 1140,
      "way": 1141,
      "taken": 1142,
      "was": 1143,
      "without": 1144,
      "respect": 1145,
      "cas": 1146,
      "number": 1147,
      "bod": 1148,
      "fund": 1149,
      "Open": 1150,
      "Where": 1151,
      "gin": 1152,
      "right": 1153,
      "reas": 1154,
      "ry": 1155,
      "second": 1156,
      "play": 1157,
      "mit": 1158,
      "itor": 1159,
      "legis": 1160,
      "ods": 1161,
      "agement": 1162,
      "programmes": 1163,
      "basis": 1164,
      "AP": 1165,
      "customs": 1166,
      "rest": 1167,
      "relevant": 1168,
      "anim": 1169,
      "ency": 1170,
      "Ed": 1171,
      "art": 1172,
      "princ": 1173,
      "ised": 1174,
      "subparagraph": 1175,
      "ession": 1176,
      "tt": 1177,
      "main": 1178,
      "determin": 1179,
      "search": 1180,
      "govern": 1181,
      "relating": 1182,
      "offic": 1183,
      "rea": 1184,
      "tif": 1185,
      "ome": 1186,
      "General": 1187,
      "princi": 1188,
      "through": 1189,
      "ever": 1190,
      "particip": 1191,
      "concerning": 1192,
      "replaced": 1193,
      "pursuant": 1194,
      "address": 1195,
      "ailable": 1196,
      "framework": 1197,
      "ote": 1198,
      "22": 1199,
      "Protocol": 1200,
      "authorities": 1201,
      "All": 1202,
      "subject": 1203,
      "tas": 1204,
      "them": 1205,
      "older": 1206,
      "vir": 1207,
      "aving": 1208,
      "King": 1209,
      "mod": 1210,
      "cor": 1211,
      "ix": 1212,
      "laration": 1213,
      "try": 1214,
      "unctioning": 1215,
      "Kingdom": 1216,
      "Com": 1217,
      "admin": 1218,
      "File": 1219,
      "ev": 1220,
      "sign": 1221,
      "os": 1222,
      "your": 1223,
      "CH": 1224,
      "need": 1225,
      "current": 1226,
      "urity": 1227,
      "ploy": 1228,
      "TION": 1229,
      "ination": 1230,
      "Save": 1231,
      "load": 1232,
      "Select": 1233,
      "30": 1234,
      "fac": 1235,
      "gi": 1236,
      "same": 1237,
      "type": 1238,
      "actions": 1239,
      "rights": 1240,
      "apter": 1241,
      "Cl": 1242,
      "rol": 1243,
      "Rem": 1244,
      "Bank": 1245,
      "deleg": 1246,
      "lete": 1247,
      "month": 1248,
      "ick": 1249,
      "Amer": 1250,
      "change": 1251,
      "ater": 1252,
      "line": 1253,
      "ner": 1254,
      "net": 1255,
      "AL": 1256,
      "Pr": 1257,
      "ward": 1258,
      "stru": 1259,
      "uring": 1260,
      "ving": 1261,
      "cases": 1262,
      "Could": 1263,
      "iture": 1264,
      "qualified": 1265,
      "peal": 1266,
      "President": 1267,
      "Ag": 1268,
      "fish": 1269,
      "available": 1270,
      "ft": 1271,
      "sit": 1272,
      "Sec": 1273,
      "erc": 1274,
      "penditure": 1275,
      "ship": 1276,
      "legal": 1277,
      "Set": 1278,
      "viron": 1279,
      "America": 1280,
      "international": 1281,
      "process": 1282,
      "management": 1283,
      "med": 1284,
      "two": 1285,
      "24": 1286,
      "Govern": 1287,
      "interest": 1288,
      "decisions": 1289,
      "27": 1290,
      "Co": 1291,
      "Chapter": 1292,
      "make": 1293,
      "represent": 1294,
      "til": 1295,
      "mental": 1296,
      "Tr": 1297,
      "hic": 1298,
      "established": 1299,
      "ield": 1300,
      "ously": 1301,
      "Fil": 1302,
      "implementing": 1303,
      "opy": 1304,
      "ude": 1305,
      "expenditure": 1306,
      "ss": 1307,
      "gy": 1308,
      "oci": 1309,
      "ning": 1310,
      "king": 1311,
      "less": 1312,
      "ature": 1313,
      "dif": 1314,
      "certain": 1315,
      "gran": 1316,
      "imum": 1317,
      "tor": 1318,
      "TER": 1319,
      "amount": 1320,
      "Dis": 1321,
      "social": 1322,
      "Al": 1323,
      "initi": 1324,
      "annual": 1325,
      "ports": 1326,
      "request": 1327,
      "He": 1328,
      "vehic": 1329,
      "valu": 1330,
      "prejud": 1331,
      "place": 1332,
      "ben": 1333,
      "applicable": 1334,
      "sition": 1335,
      "vis": 1336,
      "char": 1337,
      "sp": 1338,
      "prom": 1339,
      "CO": 1340,
      "Col": 1341,
      "report": 1342,
      "enter": 1343,
      "special": 1344,
      "With": 1345,
      "................................": 1346,
      "top": 1347,
      "DE": 1348,
      "OJ": 1349,
      "coun": 1350,
      "well": 1351,
      "taking": 1352,
      "ources": 1353,
      "image": 1354,
      "approval": 1355,
      "28": 1356,
      "fo": 1357,
      "31": 1358,
      "range": 1359,
      "oint": 1360,
      "prejudice": 1361,
      "sing": 1362,
      "unanim": 1363,
      "ommend": 1364,
      "obl": 1365,
      "tical": 1366,
      "pose": 1367,
      "files": 1368,
      "day": 1369,
      "ib": 1370,
      "ph": 1371,
      "ME": 1372,
      "29": 1373,
      "protection": 1374,
      "stand": 1375,
      "required": 1376,
      "tar": 1377,
      "must": 1378,
      "authority": 1379,
      "access": 1380,
      "Program": 1381,
      "lear": 1382,
      "who": 1383,
      "achie": 1384,
      "Cont": 1385,
      "tal": 1386,
      "'%": 1387,
      "submit": 1388,
      "ru": 1389,
      "ING": 1390,
      "IC": 1391,
      "based": 1392,
      "compet": 1393,
      "equ": 1394,
      "Tit": 1395,
      "contain": 1396,
      "oblig": 1397,
      "Er": 1398,
      "ories": 1399,
      "December": 1400,
      "does": 1401,
      "years": 1402,
      "Wh": 1403,
      "contr": 1404,
      "lative": 1405,
      "ian": 1406,
      "ten": 1407,
      "mail": 1408,
      "kn": 1409,
      "again": 1410,
      "value": 1411,
      "aid": 1412,
      "exam": 1413,
      "consulting": 1414,
      "Stat": 1415,
      "ource": 1416,
      "buds": 1417,
      "recommend": 1418,
      "Title": 1419,
      "control": 1420,
      "ultural": 1421,
      "ples": 1422,
      "ify": 1423,
      "technical": 1424,
      "environ": 1425,
      "valid": 1426,
      "bar": 1427,
      "ute": 1428,
      "areas": 1429,
      "ves": 1430,
      "Econ": 1431,
      "payment": 1432,
      "requirements": 1433,
      "earch": 1434,
      "general": 1435,
      "text": 1436,
      "uct": 1437,
      "employ": 1438,
      "Economic": 1439,
      "want": 1440,
      "far": 1441,
      "sur": 1442,
      "security": 1443,
      "provide": 1444,
      "non": 1445,
      "udit": 1446,
      "ese": 1447,
      "eck": 1448,
      "services": 1449,
      "lan": 1450,
      "Vi": 1451,
      "ric": 1452,
      "Communities": 1453,
      "referen": 1454,
      "Of": 1455,
      "group": 1456,
      "amended": 1457,
      "instru": 1458,
      "sel": 1459,
      "26": 1460,
      "window": 1461,
      "Res": 1462,
      "AND": 1463,
      "mission": 1464,
      "move": 1465,
      "reen": 1466,
      "OR": 1467,
      "rective": 1468,
      "persons": 1469,
      "ep": 1470,
      "ported": 1471,
      "2009": 1472,
      "perform": 1473,
      "You": 1474,
      "endar": 1475,
      "least": 1476,
      "import": 1477,
      "chan": 1478,
      "draw": 1479,
      "research": 1480,
      "Conf": 1481,
      "budsman": 1482,
      "IT": 1483,
      "old": 1484,
      "United": 1485,
      "put": 1486,
      "stitution": 1487,
      "Can": 1488,
      "istr": 1489,
      "meet": 1490,
      "ital": 1491,
      "design": 1492,
      "area": 1493,
      "ible": 1494,
      "istra": 1495,
      "legislative": 1496,
      "ret": 1497,
      "Mess": 1498,
      "delegated": 1499,
      "poin": 1500,
      "tings": 1501,
      "term": 1502,
      "CHAP": 1503,
      "ply": 1504,
      "goods": 1505,
      "consid": 1506,
      "ading": 1507,
      "istrative": 1508,
      "ace": 1509,
      "_B": 1510,
      "Error": 1511,
      "CHAPTER": 1512,
      "Om": 1513,
      "vention": 1514,
      "olution": 1515,
      "alloc": 1516,
      "reaties": 1517,
      "Functioning": 1518,
      "urn": 1519,
      "cess": 1520,
      "inion": 1521,
      "Reg": 1522,
      "ication": 1523,
      "Constitution": 1524,
      "field": 1525,
      "Declaration": 1526,
      "List": 1527,
      "key": 1528,
      "writ": 1529,
      "bodies": 1530,
      "Edit": 1531,
      "olog": 1532,
      "document": 1533,
      "vers": 1534,
      "ability": 1535,
      "istance": 1536,
      "ground": 1537,
      "Fin": 1538,
      "connec": 1539,
      "procedures": 1540,
      "hether": 1541,
      "Programme": 1542,
      "Ombudsman": 1543,
      "On": 1544,
      "commun": 1545,
      "message": 1546,
      "High": 1547,
      "Mar": 1548,
      "fact": 1549,
      "Folder": 1550,
      "opinion": 1551,
      "ize": 1552,
      "agreement": 1553,
      "high": 1554,
      "ris": 1555,
      "three": 1556,
      "estment": 1557,
      "UN": 1558,
      "unanimously": 1559,
      "identi": 1560,
      "organisations": 1561,
      "Do": 1562,
      "Create": 1563,
      "View": 1564,
      "uration": 1565,
      "administrative": 1566,
      "Treaties": 1567,
      "alth": 1568,
      "2006": 1569,
      "production": 1570,
      "concl": 1571,
      "duties": 1572,
      "allow": 1573,
      "Part": 1574,
      "elec": 1575,
      "agric": 1576,
      "ross": 1577,
      "addi": 1578,
      "ounts": 1579,
      "agreements": 1580,
      "Af": 1581,
      "issu": 1582,
      "ulti": 1583,
      "jects": 1584,
      "arrange": 1585,
      "sum": 1586,
      "Remove": 1587,
      "cost": 1588,
      "ques": 1589,
      "inst": 1590,
      "ances": 1591,
      "2014": 1592,
      "Delete": 1593,
      "Central": 1594,
      "powers": 1595,
      "vice": 1596,
      "then": 1597,
      "matic": 1598,
      "transport": 1599,
      "exis": 1600,
      "draft": 1601,
      "eng": 1602,
      "isation": 1603,
      "position": 1604,
      "Search": 1605,
      "during": 1606,
      "Des": 1607,
      "resources": 1608,
      "reco": 1609,
      "Nor": 1610,
      "Pre": 1611,
      "Social": 1612,
      "nov": 1613,
      "principles": 1614,
      "anu": 1615,
      "reason": 1616,
      "Fa": 1617,
      "ei": 1618,
      "upon": 1619,
      "network": 1620,
      "being": 1621,
      "possible": 1622,
      "assword": 1623,
      "Image": 1624,
      "Ser": 1625,
      "Use": 1626,
      "tis": 1627,
      "country": 1628,
      "ID": 1629,
      "months": 1630,
      "Not": 1631,
      "Copy": 1632,
      "ofthe": 1633,
      "euro": 1634,
      "fre": 1635,
      "long": 1636,
      "repeal": 1637,
      "effect": 1638,
      "fer": 1639,
      "stain": 1640,
      "row": 1641,
      "ort": 1642,
      "against": 1643,
      "We": 1644,
      "2007": 1645,
      "entry": 1646,
      "comple": 1647,
      "just": 1648,
      "ild": 1649,
      "Sub": 1650,
      "orig": 1651,
      "lease": 1652,
      "origin": 1653,
      "integr": 1654,
      "arrangements": 1655,
      "ition": 1656,
      "rece": 1657,
      "ials": 1658,
      "differen": 1659,
      "Ap": 1660,
      "sustain": 1661,
      "2008": 1662,
      "fair": 1663,
      "Directive": 1664,
      "ordin": 1665,
      "atives": 1666,
      "but": 1667,
      "KDE": 1668,
      "measure": 1669,
      "Inter": 1670,
      "prac": 1671,
      "Ass": 1672,
      "messages": 1673,
      "ont": 1674,
      "sim": 1675,
      "derog": 1676,
      "ak": 1677,
      "pan": 1678,
      "added": 1679,
      "ged": 1680,
      "Decision": 1681,
      "Move": 1682,
      "UR": 1683,
      "Statute": 1684,
      "ising": 1685,
      "ari": 1686,
      "policies": 1687,
      "AT": 1688,
      "include": 1689,
      "ENT": 1690,
      "operations": 1691,
      "Min": 1692,
      "affec": 1693,
      "defined": 1694,
      "Cannot": 1695,
      "Asia": 1696,
      "TEC": 1697,
      "tification": 1698,
      "Pl": 1699,
      "free": 1700,
      "systems": 1701,
      "Man": 1702,
      "aim": 1703,
      "back": 1704,
      "infr": 1705,
      "gn": 1706,
      "50": 1707,
      "tificate": 1708,
      "tasks": 1709,
      "ugin": 1710,
      "contin": 1711,
      "Ev": 1712,
      "LE": 1713,
      "border": 1714,
      "2020": 1715,
      "Config": 1716,
      "payments": 1717,
      "Janu": 1718,
      "ants": 1719,
      "rate": 1720,
      "commit": 1721,
      "owever": 1722,
      "Offic": 1723,
      "January": 1724,
      "strateg": 1725,
      "21": 1726,
      "elig": 1727,
      "evalu": 1728,
      "territory": 1729,
      "cy": 1730,
      "\"%": 1731,
      "RA": 1732,
      "very": 1733,
      "ards": 1734,
      "sib": 1735,
      "granted": 1736,
      "men": 1737,
      "paragraphs": 1738,
      "att": 1739,
      "regional": 1740,
      "carry": 1741,
      "ators": 1742,
      "indic": 1743,
      "sector": 1744,
      "mode": 1745,
      "vehicle": 1746,
      "130": 1747,
      "CON": 1748,
      "Ma": 1749,
      "whether": 1750,
      "poses": 1751,
      "takings": 1752,
      "his": 1753,
      "ried": 1754,
      "health": 1755,
      "ceed": 1756,
      "EA": 1757,
      "First": 1758,
      "urther": 1759,
      "excl": 1760,
      "version": 1761,
      "assistance": 1762,
      "ium": 1763,
      "agricultural": 1764,
      "PE": 1765,
      "By": 1766,
      "found": 1767,
      "total": 1768,
      "having": 1769,
      "Address": 1770,
      "instruments": 1771,
      "disc": 1772,
      "ered": 1773,
      "Mo": 1774,
      "innov": 1775,
      "Inst": 1776,
      "Author": 1777,
      "local": 1778,
      "iance": 1779,
      "book": 1780,
      "monitor": 1781,
      "ED": 1782,
      "ime": 1783,
      "tified": 1784,
      "tation": 1785,
      "projects": 1786,
      "Pol": 1787,
      "exerc": 1788,
      "project": 1789,
      "regulations": 1790,
      "facil": 1791,
      "equal": 1792,
      "saf": 1793,
      "40": 1794,
      "lines": 1795,
      "either": 1796,
      "ite": 1797,
      "ech": 1798,
      "color": 1799,
      "ze": 1800,
      "dem": 1801,
      "employment": 1802,
      "assess": 1803,
      "purpose": 1804,
      "purposes": 1805,
      "197": 1806,
      "stat": 1807,
      "ference": 1808,
      "uman": 1809,
      "GN": 1810,
      "reland": 1811,
      "iction": 1812,
      "tern": 1813,
      "198": 1814,
      "fix": 1815,
      "Ireland": 1816,
      "Please": 1817,
      "ho": 1818,
      "io": 1819,
      "atory": 1820,
      "prior": 1821,
      "exceed": 1822,
      "laws": 1823,
      "eries": 1824,
      "Name": 1825,
      "documents": 1826,
      "ash": 1827,
      "plan": 1828,
      "br": 1829,
      "oting": 1830,
      "Rec": 1831,
      "lation": 1832,
      "Window": 1833,
      "off": 1834,
      "office": 1835,
      "deta": 1836,
      "ety": 1837,
      "ograph": 1838,
      "ION": 1839,
      "ban": 1840,
      "aran": 1841,
      "ficient": 1842,
      "ptions": 1843,
      "priv": 1844,
      "div": 1845,
      "side": 1846,
      "see": 1847,
      "riter": 1848,
      "ining": 1849,
      "ens": 1850,
      "joint": 1851,
      "error": 1852,
      "Loc": 1853,
      "proper": 1854,
      "power": 1855,
      "anti": 1856,
      "34": 1857,
      "proceed": 1858,
      "bour": 1859,
      "given": 1860,
      "lis": 1861,
      "als": 1862,
      "aries": 1863,
      "ule": 1864,
      "ximum": 1865,
      "restr": 1866,
      "adoption": 1867,
      "Lo": 1868,
      "service": 1869,
      "central": 1870,
      "constitu": 1871,
      "Gro": 1872,
      "terms": 1873,
      "PRO": 1874,
      "ys": 1875,
      "reduc": 1876,
      "operational": 1877,
      "respond": 1878,
      "Message": 1879,
      "depend": 1880,
      "Def": 1881,
      "cul": 1882,
      "tem": 1883,
      "ternal": 1884,
      "financing": 1885,
      "situ": 1886,
      "compon": 1887,
      "Agree": 1888,
      "obligations": 1889,
      "Text": 1890,
      "mal": 1891,
      "criter": 1892,
      "When": 1893,
      "BL": 1894,
      "create": 1895,
      "compliance": 1896,
      "_BAR": 1897,
      "lands": 1898,
      "ready": 1899,
      "rease": 1900,
      "competi": 1901,
      "Board": 1902,
      "Ne": 1903,
      "Char": 1904,
      "energy": 1905,
      "contribute": 1906,
      "mater": 1907,
      "tom": 1908,
      "vious": 1909,
      "undertakings": 1910,
      "objective": 1911,
      "known": 1912,
      "(%": 1913,
      "Qu": 1914,
      "while": 1915,
      "related": 1916,
      "36": 1917,
      "aren": 1918,
      "another": 1919,
      "until": 1920,
      "changes": 1921,
      "fairs": 1922,
      "table": 1923,
      "dist": 1924,
      "tual": 1925,
      "derogation": 1926,
      "responsible": 1927,
      "Tool": 1928,
      "achieve": 1929,
      "_BAR_": 1930,
      "crimin": 1931,
      "multi": 1932,
      "sus": 1933,
      "langu": 1934,
      "sustainable": 1935,
      "2004": 1936,
      "regions": 1937,
      "acce": 1938,
      "provision": 1939,
      "ences": 1940,
      "prec": 1941,
      "EEC": 1942,
      "mis": 1943,
      "PAR": 1944,
      "ential": 1945,
      "respective": 1946,
      "ucture": 1947,
      "Files": 1948,
      "Cal": 1949,
      "astr": 1950,
      "uly": 1951,
      "Sw": 1952,
      "carried": 1953,
      "capital": 1954,
      "recogn": 1955,
      "IV": 1956,
      "gl": 1957,
      "specified": 1958,
      "2011": 1959,
      "sche": 1960,
      "decide": 1961,
      "most": 1962,
      "failed": 1963,
      "performance": 1964,
      "porting": 1965,
      "obtain": 1966,
      "state": 1967,
      "lic": 1968,
      "Section": 1969,
      "press": 1970,
      "TA": 1971,
      "manag": 1972,
      "results": 1973,
      "cription": 1974,
      "Den": 1975,
      "Import": 1976,
      "ause": 1977,
      "internal": 1978,
      "scri": 1979,
      "effective": 1980,
      ")(": 1981,
      "Le": 1982,
      "eel": 1983,
      "cover": 1984,
      "sto": 1985,
      "iv": 1986,
      "subst": 1987,
      "usion": 1988,
      "ktop": 1989,
      "determine": 1990,
      "criteria": 1991,
      "Afr": 1992,
      "Up": 1993,
      "prog": 1994,
      "separ": 1995,
      "Sc": 1996,
      "cross": 1997,
      "ator": 1998,
      "Jun": 1999,
      "vered": 2000,
      "costs": 2001,
      "follows": 2002,
      "task": 2003,
      "limit": 2004,
      "voc": 2005,
      "further": 2006,
      "ale": 2007,
      "ification": 2008,
      "tify": 2009,
      "bene": 2010,
      "eligible": 2011,
      "ATION": 2012,
      "ton": 2013,
      "prove": 2014,
      "different": 2015,
      "start": 2016,
      "tle": 2017,
      "trade": 2018,
      "Defa": 2019,
      "Go": 2020,
      "bec": 2021,
      "find": 2022,
      "Failed": 2023,
      ");": 2024,
      "Project": 2025,
      "EUR": 2026,
      "whose": 2027,
      "competent": 2028,
      "maintain": 2029,
      "question": 2030,
      "existing": 2031,
      "nat": 2032,
      "words": 2033,
      "now": 2034,
      "inser": 2035,
      "At": 2036,
      "Mon": 2037,
      "consist": 2038,
      "Group": 2039,
      ":%": 2040,
      "ger": 2041,
      "EURO": 2042,
      "32": 2043,
      "Jud": 2044,
      "Ty": 2045,
      "ced": 2046,
      "Affairs": 2047,
      "funding": 2048,
      "event": 2049,
      "promote": 2050,
      "TF": 2051,
      "associ": 2052,
      "repealed": 2053,
      "ils": 2054,
      "formation": 2055,
      "applied": 2056,
      "board": 2057,
      "principle": 2058,
      "mun": 2059,
      "ended": 2060,
      "Gu": 2061,
      "mem": 2062,
      "oose": 2063,
      "meth": 2064,
      "Custo": 2065,
      "itiz": 2066,
      "points": 2067,
      "La": 2068,
      "Pu": 2069,
      "ily": 2070,
      "benefici": 2071,
      "Mail": 2072,
      "ister": 2073,
      "edom": 2074,
      "acter": 2075,
      "uris": 2076,
      "ialog": 2077,
      "Evolution": 2078,
      "Africa": 2079,
      "using": 2080,
      "accession": 2081,
      "committee": 2082,
      "Act": 2083,
      "acqu": 2084,
      "ulture": 2085,
      "infrastr": 2086,
      "System": 2087,
      "guaran": 2088,
      "har": 2089,
      "farm": 2090,
      "EUROPE": 2091,
      "Page": 2092,
      "Book": 2093,
      "Agreement": 2094,
      "Denmark": 2095,
      "\".": 2096,
      "body": 2097,
      "Print": 2098,
      "sta": 2099,
      "regular": 2100,
      "diction": 2101,
      "log": 2102,
      "acity": 2103,
      "yn": 2104,
      "maximum": 2105,
      "reference": 2106,
      "categ": 2107,
      "invol": 2108,
      "35": 2109,
      "atch": 2110,
      "investment": 2111,
      "Color": 2112,
      "reng": 2113,
      "fulfil": 2114,
      "Str": 2115,
      "etary": 2116,
      "Enter": 2117,
      "85": 2118,
      "Docu": 2119,
      "iness": 2120,
      "covered": 2121,
      "parties": 2122,
      "correspond": 2123,
      "save": 2124,
      "display": 2125,
      "Default": 2126,
      "page": 2127,
      "--": 2128,
      "relation": 2129,
      "uditors": 2130,
      "Sp": 2131,
      "monitoring": 2132,
      "already": 2133,
      "last": 2134,
      "atom": 2135,
      "mary": 2136,
      "uded": 2137,
      "nor": 2138,
      "sive": 2139,
      "tran": 2140,
      "comp": 2141,
      "size": 2142,
      "both": 2143,
      "Settings": 2144,
      "proceedings": 2145,
      "tomatic": 2146,
      "were": 2147,
      "supported": 2148,
      "single": 2149,
      "return": 2150,
      "natural": 2151,
      "Me": 2152,
      "educ": 2153,
      "Members": 2154,
      "product": 2155,
      "box": 2156,
      "facilit": 2157,
      "ustri": 2158,
      "quality": 2159,
      "spe": 2160,
      "streng": 2161,
      "applications": 2162,
      "Direct": 2163,
      "technolog": 2164,
      "divid": 2165,
      "four": 2166,
      "adjust": 2167,
      "They": 2168,
      "show": 2169,
      "cope": 2170,
      "complain": 2171,
      "directly": 2172,
      "tool": 2173,
      "proposed": 2174,
      "environmental": 2175,
      "format": 2176,
      "human": 2177,
      "server": 2178,
      "air": 2179,
      "juris": 2180,
      "hel": 2181,
      "sequ": 2182,
      "Unable": 2183,
      "ECB": 2184,
      "gar": 2185,
      "wise": 2186,
      "deli": 2187,
      "exchange": 2188,
      "regards": 2189,
      "password": 2190,
      "enh": 2191,
      "fl": 2192,
      "tes": 2193,
      "ask": 2194,
      "33": 2195,
      "Auditors": 2196,
      "Em": 2197,
      "Other": 2198,
      "citiz": 2199,
      "tton": 2200,
      "identif": 2201,
      "evaluation": 2202,
      "Br": 2203,
      "road": 2204,
      "full": 2205,
      "initiative": 2206,
      "Check": 2207,
      "2012": 2208,
      "button": 2209,
      "calendar": 2210,
      "external": 2211,
      "hold": 2212,
      "certificate": 2213,
      "Conference": 2214,
      "publish": 2215,
      "config": 2216,
      "NG": 2217,
      "Rules": 2218,
      "give": 2219,
      "usiness": 2220,
      "grow": 2221,
      "Fore": 2222,
      "organisation": 2223,
      "benef": 2224,
      "Is": 2225,
      "oriz": 2226,
      "bly": 2227,
      "manu": 2228,
      "Funds": 2229,
      "determined": 2230,
      "Play": 2231,
      "43": 2232,
      "Eur": 2233,
      "Ke": 2234,
      "Lin": 2235,
      "ecu": 2236,
      "food": 2237,
      "ient": 2238,
      "environment": 2239,
      "Type": 2240,
      "ux": 2241,
      "would": 2242,
      "eding": 2243,
      "result": 2244,
      "Time": 2245,
      "cir": 2246,
      "Curren": 2247,
      "some": 2248,
      "listed": 2249,
      "tices": 2250,
      "cent": 2251,
      "tors": 2252,
      "Information": 2253,
      "considers": 2254,
      "improve": 2255,
      "training": 2256,
      "bal": 2257,
      "vari": 2258,
      "review": 2259,
      "PU": 2260,
      "TIT": 2261,
      "istration": 2262,
      "vent": 2263,
      "recei": 2264,
      "Euratom": 2265,
      "Send": 2266,
      "could": 2267,
      "territories": 2268,
      "interests": 2269,
      "innovation": 2270,
      "Ver": 2271,
      "active": 2272,
      "come": 2273,
      "bourg": 2274,
      "jurisdiction": 2275,
      "fe": 2276,
      "ele": 2277,
      "option": 2278,
      "rev": 2279,
      "according": 2280,
      "capacity": 2281,
      "Date": 2282,
      "ier": 2283,
      "enable": 2284,
      "ournal": 2285,
      "extent": 2286,
      "legislation": 2287,
      "prepar": 2288,
      "ire": 2289,
      "mil": 2290,
      "propor": 2291,
      "recommendations": 2292,
      "sibility": 2293,
      "Convention": 2294,
      "Region": 2295,
      "due": 2296,
      "sent": 2297,
      "materials": 2298,
      "hes": 2299,
      "Agency": 2300,
      "restric": 2301,
      "May": 2302,
      "Options": 2303,
      "limits": 2304,
      "Such": 2305,
      "Instance": 2306,
      "RES": 2307,
      "water": 2308,
      "notification": 2309,
      "39": 2310,
      "Ger": 2311,
      "Current": 2312,
      "User": 2313,
      "exp": 2314,
      "amendments": 2315,
      "Ital": 2316,
      "Government": 2317,
      "EM": 2318,
      "Oc": 2319,
      "imp": 2320,
      "compa": 2321,
      "among": 2322,
      "fault": 2323,
      "making": 2324,
      "risk": 2325,
      "**": 2326,
      "paren": 2327,
      "run": 2328,
      "esti": 2329,
      "Authority": 2330,
      "comply": 2331,
      "situation": 2332,
      "help": 2333,
      "Out": 2334,
      "dele": 2335,
      "about": 2336,
      "user": 2337,
      "anced": 2338,
      "ization": 2339,
      "ilities": 2340,
      "TO": 2341,
      "dri": 2342,
      "eness": 2343,
      "uni": 2344,
      "institution": 2345,
      "Display": 2346,
      "exercise": 2347,
      "Po": 2348,
      "equip": 2349,
      "status": 2350,
      "Cer": 2351,
      "tab": 2352,
      "prof": 2353,
      "many": 2354,
      "ouse": 2355,
      "mean": 2356,
      "TFEU": 2357,
      "six": 2358,
      "intro": 2359,
      "increas": 2360,
      "ergy": 2361,
      "bel": 2362,
      "contact": 2363,
      "budgetary": 2364,
      "CD": 2365,
      "Val": 2366,
      "cur": 2367,
      "dialog": 2368,
      "rain": 2369,
      "submitted": 2370,
      "consider": 2371,
      "separate": 2372,
      "matter": 2373,
      "practices": 2374,
      "appoint": 2375,
      "minimum": 2376,
      "Trans": 2377,
      "Down": 2378,
      "hesion": 2379,
      "establishment": 2380,
      "ttp": 2381,
      "Back": 2382,
      "Log": 2383,
      "Energy": 2384,
      "audit": 2385,
      "light": 2386,
      "participation": 2387,
      "Without": 2388,
      "inserted": 2389,
      "bur": 2390,
      "nature": 2391,
      "ling": 2392,
      "record": 2393,
      "laying": 2394,
      "check": 2395,
      "grant": 2396,
      "Calendar": 2397,
      "\\\\": 2398,
      "amental": 2399,
      "funds": 2400,
      "increase": 2401,
      "Inv": 2402,
      "freedom": 2403,
      "Or": 2404,
      "mall": 2405,
      "session": 2406,
      "remain": 2407,
      "refore": 2408,
      "ML": 2409,
      "reser": 2410,
      "Foreign": 2411,
      "Mr": 2412,
      "Sch": 2413,
      "item": 2414,
      "struc": 2415,
      "medi": 2416,
      "write": 2417,
      "http": 2418,
      "Proced": 2419,
      "promoting": 2420,
      "priorities": 2421,
      "Journal": 2422,
      "Number": 2423,
      "wid": 2424,
      "Web": 2425,
      "66": 2426,
      "Mod": 2427,
      "US": 2428,
      "arity": 2429,
      "deb": 2430,
      "needs": 2431,
      "2010": 2432,
      "orizon": 2433,
      "forward": 2434,
      "stage": 2435,
      "contribution": 2436,
      "consum": 2437,
      "accounts": 2438,
      "supply": 2439,
      "Data": 2440,
      "March": 2441,
      "ery": 2442,
      "head": 2443,
      "default": 2444,
      "Editor": 2445,
      "private": 2446,
      "bed": 2447,
      "above": 2448,
      "usive": 2449,
      "prevent": 2450,
      "like": 2451,
      "37": 2452,
      "2002": 2453,
      "duty": 2454,
      "priority": 2455,
      "pens": 2456,
      "HA": 2457,
      "sci": 2458,
      "guide": 2459,
      "scope": 2460,
      "matters": 2461,
      "Atom": 2462,
      "Fe": 2463,
      "IP": 2464,
      "reach": 2465,
      "suf": 2466,
      "Start": 2467,
      "cannot": 2468,
      "rought": 2469,
      "additional": 2470,
      "ub": 2471,
      "parti": 2472,
      "soci": 2473,
      "character": 2474,
      "Tab": 2475,
      "reques": 2476,
      "Close": 2477,
      "Spec": 2478,
      "2003": 2479,
      "tiveness": 2480,
      "Configure": 2481,
      "Ph": 2482,
      "eu": 2483,
      "ibility": 2484,
      "From": 2485,
      "ordination": 2486,
      "amounts": 2487,
      "moved": 2488,
      "selection": 2489,
      "continue": 2490,
      "45": 2491,
      "IG": 2492,
      "later": 2493,
      "sk": 2494,
      "otherwise": 2495,
      "ww": 2496,
      "def": 2497,
      "ifications": 2498,
      "vehicles": 2499,
      "mu": 2500,
      "plic": 2501,
      "adi": 2502,
      "2005": 2503,
      "ster": 2504,
      "independ": 2505,
      "tics": 2506,
      "iff": 2507,
      "command": 2508,
      "Official": 2509,
      "Pa": 2510,
      "pop": 2511,
      "infrastructure": 2512,
      "hand": 2513,
      "Head": 2514,
      "facture": 2515,
      "banks": 2516,
      "ivil": 2517,
      "ii": 2518,
      "stor": 2519,
      "tax": 2520,
      "collec": 2521,
      "groups": 2522,
      "sidered": 2523,
      "unless": 2524,
      "comb": 2525,
      "forms": 2526,
      "discrimin": 2527,
      "contract": 2528,
      "imate": 2529,
      "declaration": 2530,
      "Any": 2531,
      "ival": 2532,
      "considered": 2533,
      "directory": 2534,
      "resulting": 2535,
      "representatives": 2536,
      "Plugin": 2537,
      "Att": 2538,
      "Atomic": 2539,
      "addition": 2540,
      "tober": 2541,
      "Change": 2542,
      "close": 2543,
      "processing": 2544,
      "concluded": 2545,
      "URL": 2546,
      "Charter": 2547,
      "Bl": 2548,
      "Pac": 2549,
      "Work": 2550,
      "equipment": 2551,
      "proposals": 2552,
      "Minister": 2553,
      "Document": 2554,
      "Procedure": 2555,
      "ently": 2556,
      "hear": 2557,
      "quot": 2558,
      "gether": 2559,
      "calcul": 2560,
      "fishing": 2561,
      "However": 2562,
      "sitional": 2563,
      "individ": 2564,
      "paid": 2565,
      "facilitate": 2566,
      "build": 2567,
      "implemented": 2568,
      "cession": 2569,
      "Contact": 2570,
      "gener": 2571,
      "October": 2572,
      "anal": 2573,
      "let": 2574,
      "she": 2575,
      "screen": 2576,
      "equival": 2577,
      "*.": 2578,
      "ercial": 2579,
      "\",": 2580,
      "monetary": 2581,
      "Cy": 2582,
      "sa": 2583,
      "These": 2584,
      "Click": 2585,
      "ious": 2586,
      "lab": 2587,
      "deem": 2588,
      "000": 2589,
      "June": 2590,
      "functioning": 2591,
      "itical": 2592,
      "tled": 2593,
      "Enable": 2594,
      "suring": 2595,
      "component": 2596,
      "Apr": 2597,
      "Sup": 2598,
      "together": 2599,
      "thentic": 2600,
      "education": 2601,
      "pty": 2602,
      "2001": 2603,
      "thereof": 2604,
      "working": 2605,
      "ESI": 2606,
      "progress": 2607,
      "deleted": 2608,
      "Pacific": 2609,
      "five": 2610,
      "context": 2611,
      "tempor": 2612,
      "business": 2613,
      "April": 2614,
      "oid": 2615,
      "delete": 2616,
      "goti": 2617,
      "Public": 2618,
      "brought": 2619,
      "ordinary": 2620,
      "introduc": 2621,
      "FOR": 2622,
      "SME": 2623,
      "sound": 2624,
      "umn": 2625,
      "commercial": 2626,
      "amending": 2627,
      "holder": 2628,
      "quanti": 2629,
      "had": 2630,
      "scheme": 2631,
      "Find": 2632,
      "Source": 2633,
      "den": 2634,
      "prices": 2635,
      "participating": 2636,
      "export": 2637,
      "fully": 2638,
      "ging": 2639,
      "jus": 2640,
      "negoti": 2641,
      "link": 2642,
      "Free": 2643,
      "conduc": 2644,
      "final": 2645,
      "wards": 2646,
      "acquis": 2647,
      "reports": 2648,
      "2000": 2649,
      "obal": 2650,
      "fisheries": 2651,
      "meeting": 2652,
      "role": 2653,
      "olume": 2654,
      "Filter": 2655,
      "wine": 2656,
      "signed": 2657,
      "Mem": 2658,
      "adv": 2659,
      "Net": 2660,
      "mill": 2661,
      "pot": 2662,
      "treat": 2663,
      "recommendation": 2664,
      "growth": 2665,
      "individual": 2666,
      "sectors": 2667,
      "Per": 2668,
      "ince": 2669,
      "imports": 2670,
      "decid": 2671,
      "attach": 2672,
      "embly": 2673,
      "coordination": 2674,
      "tures": 2675,
      "know": 2676,
      "references": 2677,
      "HT": 2678,
      "cum": 2679,
      "Common": 2680,
      "55": 2681,
      "Am": 2682,
      "Fr": 2683,
      "partner": 2684,
      "affect": 2685,
      "preceding": 2686,
      "pes": 2687,
      "TIES": 2688,
      "conferred": 2689,
      "48": 2690,
      "cre": 2691,
      "hal": 2692,
      "ming": 2693,
      "adap": 2694,
      "fixed": 2695,
      "class": 2696,
      "geograph": 2697,
      "nationals": 2698,
      "TING": 2699,
      "Pri": 2700,
      "pted": 2701,
      "sid": 2702,
      "web": 2703,
      "communic": 2704,
      "PUBL": 2705,
      "manufacture": 2706,
      "uxem": 2707,
      "):": 2708,
      "],": 2709,
      "select": 2710,
      "judic": 2711,
      "PUBLIC": 2712,
      "bon": 2713,
      "vot": 2714,
      "ename": 2715,
      "tees": 2716,
      "allocated": 2717,
      "46": 2718,
      "Accession": 2719,
      "sels": 2720,
      "published": 2721,
      "equivalent": 2722,
      "'.": 2723,
      "job": 2724,
      "good": 2725,
      "olid": 2726,
      "Connec": 2727,
      "pointed": 2728,
      "strategy": 2729,
      "compati": 2730,
      "Luxem": 2731,
      "ideo": 2732,
      "judg": 2733,
      "Financ": 2734,
      "complete": 2735,
      "MM": 2736,
      "ensuring": 2737,
      "ulation": 2738,
      "proble": 2739,
      "standards": 2740,
      "PO": 2741,
      "PRES": 2742,
      "ender": 2743,
      "ises": 2744,
      "unit": 2745,
      "climate": 2746,
      "setting": 2747,
      "assessment": 2748,
      "Luxembourg": 2749,
      "Bel": 2750,
      "her": 2751,
      "hib": 2752,
      "rid": 2753,
      "iry": 2754,
      "currency": 2755,
      "applying": 2756,
      "regarding": 2757,
      "approved": 2758,
      "mech": 2759,
      "every": 2760,
      "corresponding": 2761,
      "istrar": 2762,
      "mediate": 2763,
      "how": 2764,
      "iting": 2765,
      "price": 2766,
      "Advoc": 2767,
      "ways": 2768,
      "meaning": 2769,
      "60": 2770,
      "lhe": 2771,
      "guidelines": 2772,
      "marke": 2773,
      "annex": 2774,
      "Registrar": 2775,
      "Size": 2776,
      "fall": 2777,
      "portun": 2778,
      "activity": 2779,
      "issue": 2780,
      "That": 2781,
      "organ": 2782,
      "IM": 2783,
      "fail": 2784,
      "Ab": 2785,
      "Por": 2786,
      "ights": 2787,
      "relations": 2788,
      "Develop": 2789,
      "therefore": 2790,
      "Prov": 2791,
      "specify": 2792,
      "stry": 2793,
      "100": 2794,
      "beneficiaries": 2795,
      "impact": 2796,
      "sets": 2797,
      "Proper": 2798,
      "days": 2799,
      "Description": 2800,
      "safe": 2801,
      "harmon": 2802,
      "ade": 2803,
      "jo": 2804,
      "rural": 2805,
      "Key": 2806,
      "Investment": 2807,
      "Financial": 2808,
      "Bu": 2809,
      "TEU": 2810,
      "’;": 2811,
      "encies": 2812,
      "Mark": 2813,
      "Are": 2814,
      "notify": 2815,
      "obligation": 2816,
      "SS": 2817,
      "dam": 2818,
      "mber": 2819,
      "small": 2820,
      "verage": 2821,
      "personal": 2822,
      "ISION": 2823,
      "transitional": 2824,
      "stud": 2825,
      "49": 2826,
      "July": 2827,
      "REPUBLIC": 2828,
      "/%": 2829,
      "Horizon": 2830,
      "appeal": 2831,
      "appointed": 2832,
      "rectives": 2833,
      "posed": 2834,
      "powered": 2835,
      "copy": 2836,
      "ness": 2837,
      "therlands": 2838,
      "contracts": 2839,
      "however": 2840,
      "content": 2841,
      "settings": 2842,
      "EUROPEAN": 2843,
      "oom": 2844,
      "opportun": 2845,
      "80": 2846,
      "Fl": 2847,
      "path": 2848,
      "Judges": 2849,
      "DV": 2850,
      "VE": 2851,
      "font": 2852,
      "utes": 2853,
      "movement": 2854,
      "Server": 2855,
      "temporary": 2856,
      "EX": 2857,
      "ST": 2858,
      "parts": 2859,
      "approach": 2860,
      "examination": 2861,
      "Netherlands": 2862,
      "language": 2863,
      "exist": 2864,
      "pension": 2865,
      "connection": 2866,
      "circum": 2867,
      "65": 2868,
      "source": 2869,
      "ople": 2870,
      "udio": 2871,
      "................................................................": 2872,
      "restrictions": 2873,
      "aw": 2874,
      "plugin": 2875,
      "rench": 2876,
      "observ": 2877,
      "safety": 2878,
      "returns": 2879,
      "mechanis": 2880,
      "French": 2881,
      "vember": 2882,
      "limited": 2883,
      "competence": 2884,
      "acy": 2885,
      "ched": 2886,
      "Enc": 2887,
      "ang": 2888,
      "November": 2889,
      "Choose": 2890,
      "distribu": 2891,
      "ture": 2892,
      "grounds": 2893,
      "indicators": 2894,
      "73": 2895,
      "alia": 2896,
      "raw": 2897,
      "IGH": 2898,
      "sy": 2899,
      "Unknown": 2900,
      "entific": 2901,
      "Next": 2902,
      "stances": 2903,
      "pression": 2904,
      "political": 2905,
      "1999": 2906,
      "farmers": 2907,
      "votes": 2908,
      "ek": 2909,
      "ough": 2910,
      "There": 2911,
      "basic": 2912,
      "allocation": 2913,
      "Assembly": 2914,
      "51": 2915,
      "ane": 2916,
      "cour": 2917,
      "Invalid": 2918,
      "Toolbar": 2919,
      "sufficient": 2920,
      "ax": 2921,
      "workers": 2922,
      "face": 2923,
      "communication": 2924,
      "PROV": 2925,
      "Hel": 2926,
      "HIGH": 2927,
      "empowered": 2928,
      "Governing": 2929,
      "deemed": 2930,
      "potential": 2931,
      "Joint": 2932,
      "below": 2933,
      "Those": 2934,
      "GNO": 2935,
      "judgment": 2936,
      "Password": 2937,
      "ension": 2938,
      "self": 2939,
      "rates": 2940,
      "ined": 2941,
      "chec": 2942,
      "Steel": 2943,
      "Export": 2944,
      "geographical": 2945,
      "41": 2946,
      "Mal": 2947,
      "Over": 2948,
      "TRA": 2949,
      "efficient": 2950,
      "bug": 2951,
      "tomatically": 2952,
      "PRESID": 2953,
      "Sign": 2954,
      "tri": 2955,
      "itime": 2956,
      "annexed": 2957,
      "circumstances": 2958,
      "Clear": 2959,
      "half": 2960,
      "reven": 2961,
      "click": 2962,
      "reasons": 2963,
      "managing": 2964,
      "Custom": 2965,
      "PRESIDENT": 2966,
      "Fish": 2967,
      "omen": 2968,
      "people": 2969,
      "coordin": 2970,
      "values": 2971,
      "Desktop": 2972,
      "suc": 2973,
      "conform": 2974,
      "supporting": 2975,
      "foreign": 2976,
      "ai": 2977,
      "towards": 2978,
      "undertaking": 2979,
      "continu": 2980,
      "pressed": 2981,
      "received": 2982,
      "Network": 2983,
      "78": 2984,
      "IF": 2985,
      "replace": 2986,
      "appe": 2987,
      "space": 2988,
      "details": 2989,
      "court": 2990,
      "atter": 2991,
      "serious": 2992,
      "detailed": 2993,
      "IL": 2994,
      "ceil": 2995,
      "exper": 2996,
      "providing": 2997,
      "governing": 2998,
      "missions": 2999,
      "ISIONS": 3000,
      "orial": 3001,
      "prohib": 3002,
      "rop": 3003,
      "electr": 3004,
      "defence": 3005,
      "MB": 3006,
      "bi": 3007,
      "clear": 3008,
      "ins": 3009,
      "discrimination": 3010,
      "bank": 3011,
      "econom": 3012,
      "Download": 3013,
      "Properties": 3014,
      "MENT": 3015,
      "aro": 3016,
      "foc": 3017,
      "yle": 3018,
      "eder": 3019,
      "outs": 3020,
      "vert": 3021,
      "ized": 3022,
      "citizens": 3023,
      "ense": 3024,
      "administration": 3025,
      "integrated": 3026,
      "motion": 3027,
      "lling": 3028,
      "drawn": 3029,
      "various": 3030,
      "transfer": 3031,
      "Ob": 3032,
      "pack": 3033,
      "aged": 3034,
      "signature": 3035,
      "begin": 3036,
      "cho": 3037,
      "mob": 3038,
      "tered": 3039,
      "complement": 3040,
      "Regions": 3041,
      "44": 3042,
      "ledge": 3043,
      "site": 3044,
      "star": 3045,
      "effects": 3046,
      "Coal": 3047,
      "fields": 3048,
      "PROVISIONS": 3049,
      "card": 3050,
      "atab": 3051,
      "sumer": 3052,
      "aff": 3053,
      "previous": 3054,
      "Link": 3055,
      "manufacturer": 3056,
      "Email": 3057,
      "ju": 3058,
      "agre": 3059,
      "uding": 3060,
      "informed": 3061,
      "marks": 3062,
      "entitled": 3063,
      "VI": 3064,
      "bru": 3065,
      "itch": 3066,
      "percent": 3067,
      "Swed": 3068,
      "ancel": 3069,
      "ISO": 3070,
      "pat": 3071,
      "vote": 3072,
      "email": 3073,
      "67": 3074,
      "duration": 3075,
      "wor": 3076,
      "archive": 3077,
      "Mode": 3078,
      "nam": 3079,
      "improv": 3080,
      "competition": 3081,
      "omin": 3082,
      "allen": 3083,
      "subsid": 3084,
      "See": 3085,
      "compatible": 3086,
      "ece": 3087,
      "Each": 3088,
      "bit": 3089,
      "creat": 3090,
      "immediate": 3091,
      "party": 3092,
      "gets": 3093,
      "TIC": 3094,
      "exception": 3095,
      "42": 3096,
      "AC": 3097,
      "examine": 3098,
      "Rights": 3099,
      "SEC": 3100,
      "inten": 3101,
      "//": 3102,
      "Categ": 3103,
      "ending": 3104,
      "consult": 3105,
      "labour": 3106,
      "Game": 3107,
      "call": 3108,
      "producer": 3109,
      "consultation": 3110,
      "currently": 3111,
      "suspend": 3112,
      "revenue": 3113,
      "Sing": 3114,
      "sor": 3115,
      "icy": 3116,
      "images": 3117,
      "except": 3118,
      "participate": 3119,
      "rule": 3120,
      "important": 3121,
      "fav": 3122,
      "aper": 3123,
      "protected": 3124,
      "standing": 3125,
      "Subject": 3126,
      "itation": 3127,
      "types": 3128,
      "Only": 3129,
      "DVD": 3130,
      "inqu": 3131,
      "met": 3132,
      "avoid": 3133,
      "whole": 3134,
      "sem": 3135,
      "idence": 3136,
      "appropriations": 3137,
      "ficiency": 3138,
      "thern": 3139,
      "Development": 3140,
      "TRAC": 3141,
      "DO": 3142,
      "bind": 3143,
      "rup": 3144,
      "provides": 3145,
      "surve": 3146,
      "bring": 3147,
      "ull": 3148,
      "options": 3149,
      "marketing": 3150,
      "territorial": 3151,
      "75": 3152,
      "aqu": 3153,
      "share": 3154,
      "sugar": 3155,
      "supplement": 3156,
      "90": 3157,
      "95": 3158,
      "ik": 3159,
      "CONTRAC": 3160,
      "CONTRACTING": 3161,
      "IA": 3162,
      "PARTIES": 3163,
      "judicial": 3164,
      "million": 3165,
      "Scri": 3166,
      "Inser": 3167,
      "tection": 3168,
      "contains": 3169,
      "storage": 3170,
      "Gre": 3171,
      "volume": 3172,
      "agencies": 3173,
      "excess": 3174,
      "ished": 3175,
      "install": 3176,
      "Preview": 3177,
      "justified": 3178,
      "markets": 3179,
      "ero": 3180,
      "step": 3181,
      "authorised": 3182,
      "europa": 3183,
      "Tar": 3184,
      "commitments": 3185,
      "proportion": 3186,
      "independent": 3187,
      "://": 3188,
      "Having": 3189,
      "SC": 3190,
      "next": 3191,
      "heading": 3192,
      "contacts": 3193,
      "languages": 3194,
      "Germany": 3195,
      "38": 3196,
      "wish": 3197,
      "plate": 3198,
      "istory": 3199,
      "encour": 3200,
      "guarantee": 3201,
      "holders": 3202,
      "appear": 3203,
      "tative": 3204,
      "manner": 3205,
      "location": 3206,
      "After": 3207,
      "Policy": 3208,
      "global": 3209,
      "59": 3210,
      "ape": 3211,
      "challen": 3212,
      "governments": 3213,
      "method": 3214,
      "Org": 3215,
      "analys": 3216,
      "FR": 3217,
      "lif": 3218,
      "pi": 3219,
      "standard": 3220,
      "longer": 3221,
      "Office": 3222,
      "Austri": 3223,
      "attain": 3224,
      "included": 3225,
      "government": 3226,
      "Security": 3227,
      "exists": 3228,
      "fresh": 3229,
      "accept": 3230,
      "methods": 3231,
      "knowledge": 3232,
      "outside": 3233,
      "47": 3234,
      "UTION": 3235,
      "Video": 3236,
      "short": 3237,
      "experi": 3238,
      "Location": 3239,
      "appointment": 3240,
      "MA": 3241,
      "Slo": 3242,
      "cle": 3243,
      "els": 3244,
      "particularly": 3245,
      "engen": 3246,
      "networks": 3247,
      "Attach": 3248,
      "atabase": 3249,
      "ock": 3250,
      "perman": 3251,
      "publication": 3252,
      "balance": 3253,
      "Schengen": 3254,
      "what": 3255,
      "diffic": 3256,
      "DP": 3257,
      "Right": 3258,
      "sal": 3259,
      "recy": 3260,
      "intended": 3261,
      "programming": 3262,
      "desktop": 3263,
      "regulation": 3264,
      "Italian": 3265,
      "Febru": 3266,
      "February": 3267,
      "civil": 3268,
      "remove": 3269,
      "ager": 3270,
      "depart": 3271,
      "versity": 3272,
      "COMM": 3273,
      "thentication": 3274,
      "treatment": 3275,
      "57": 3276,
      "EG": 3277,
      "EL": 3278,
      "average": 3279,
      "elements": 3280,
      "entered": 3281,
      "consumer": 3282,
      "occur": 3283,
      "Last": 3284,
      "units": 3285,
      "subscri": 3286,
      "section": 3287,
      "categories": 3288,
      "success": 3289,
      "Every": 3290,
      "conven": 3291,
      "182": 3292,
      "instrument": 3293,
      "CONS": 3294,
      "population": 3295,
      "Fisheries": 3296,
      "Sim": 3297,
      "ared": 3298,
      "icon": 3299,
      "bey": 3300,
      "Account": 3301,
      "REAT": 3302,
      "stoc": 3303,
      "bun": 3304,
      "exclusive": 3305,
      "Gr": 3306,
      "lead": 3307,
      "assign": 3308,
      "containing": 3309,
      "Previous": 3310,
      "SMEs": 3311,
      "ration": 3312,
      "notified": 3313,
      "transparen": 3314,
      "economy": 3315,
      "reek": 3316,
      "efficiency": 3317,
      "entire": 3318,
      "uture": 3319,
      "example": 3320,
      "conduct": 3321,
      "arm": 3322,
      "target": 3323,
      "opinions": 3324,
      "Loading": 3325,
      "configuration": 3326,
      "Hide": 3327,
      "ired": 3328,
      "via": 3329,
      "real": 3330,
      "penal": 3331,
      "ISH": 3332,
      "Insert": 3333,
      "Mer": 3334,
      "Task": 3335,
      "aint": 3336,
      "tore": 3337,
      "expec": 3338,
      "decla": 3339,
      "ificant": 3340,
      "achieved": 3341,
      "multiannual": 3342,
      "TITUTION": 3343,
      "conformity": 3344,
      "Lef": 3345,
      "staff": 3346,
      "accom": 3347,
      "Single": 3348,
      "':": 3349,
      "52": 3350,
      "Home": 3351,
      "game": 3352,
      "ota": 3353,
      "inary": 3354,
      "dex": 3355,
      "authorisation": 3356,
      "invest": 3357,
      "category": 3358,
      "Certificate": 3359,
      "58": 3360,
      "func": 3361,
      "granting": 3362,
      "charge": 3363,
      "checks": 3364,
      "latter": 3365,
      "plication": 3366,
      "ray": 3367,
      "Represent": 3368,
      "Configuration": 3369,
      "achievement": 3370,
      "Austria": 3371,
      "Left": 3372,
      "Tem": 3373,
      "az": 3374,
      "lates": 3375,
      "pass": 3376,
      "immun": 3377,
      "operators": 3378,
      "Portu": 3379,
      "Execu": 3380,
      "modifications": 3381,
      "Class": 3382,
      "Within": 3383,
      "IB": 3384,
      "shown": 3385,
      "core": 3386,
      "loading": 3387,
      "Lic": 3388,
      "Line": 3389,
      "Mac": 3390,
      "definition": 3391,
      "Messages": 3392,
      "Belgi": 3393,
      "map": 3394,
      "host": 3395,
      "Phone": 3396,
      "HTML": 3397,
      "Greece": 3398,
      "TC": 3399,
      "even": 3400,
      "device": 3401,
      "Paragraph": 3402,
      "institutional": 3403,
      "tariff": 3404,
      "changed": 3405,
      "Service": 3406,
      "safegu": 3407,
      "Med": 3408,
      "ped": 3409,
      "ron": 3410,
      "delay": 3411,
      "sole": 3412,
      "beyond": 3413,
      "Du": 3414,
      "prises": 3415,
      "indent": 3416,
      "scientific": 3417,
      "scale": 3418,
      "significant": 3419,
      "issues": 3420,
      "carrying": 3421,
      "speed": 3422,
      "milk": 3423,
      "sentence": 3424,
      "Syn": 3425,
      "refer": 3426,
      "levels": 3427,
      "recognised": 3428,
      "ustrial": 3429,
      "License": 3430,
      "Feder": 3431,
      "best": 3432,
      "ilar": 3433,
      "Regulations": 3434,
      "governed": 3435,
      "fourth": 3436,
      "92": 3437,
      "care": 3438,
      "ipboard": 3439,
      "Auto": 3440,
      "sibilities": 3441,
      "Brus": 3442,
      "&#": 3443,
      "TY": 3444,
      "abs": 3445,
      "clos": 3446,
      "renew": 3447,
      "folders": 3448,
      "56": 3449,
      "88": 3450,
      "ead": 3451,
      "future": 3452,
      "xy": 3453,
      "coming": 3454,
      "Action": 3455,
      "servants": 3456,
      "addressed": 3457,
      "uniform": 3458,
      "Brussels": 3459,
      "Font": 3460,
      "developing": 3461,
      "fundamental": 3462,
      "representing": 3463,
      "Sweden": 3464,
      "Jo": 3465,
      "Run": 3466,
      "gal": 3467,
      "large": 3468,
      "responsibility": 3469,
      "components": 3470,
      "become": 3471,
      "Lis": 3472,
      "oto": 3473,
      "ines": 3474,
      "officials": 3475,
      "54": 3476,
      "FF": 3477,
      "hol": 3478,
      "’.": 3479,
      "deal": 3480,
      "Under": 3481,
      "directives": 3482,
      "takes": 3483,
      "ployment": 3484,
      "visory": 3485,
      "reduction": 3486,
      "width": 3487,
      "Spe": 3488,
      "TP": 3489,
      "vision": 3490,
      "better": 3491,
      "reak": 3492,
      "rowser": 3493,
      "Support": 3494,
      "CB": 3495,
      "Kon": 3496,
      "financed": 3497,
      "investi": 3498,
      "obtained": 3499,
      "binding": 3500,
      "ISHING": 3501,
      "investig": 3502,
      "(\"": 3503,
      "70": 3504,
      "uclear": 3505,
      "custom": 3506,
      "lock": 3507,
      "bunal": 3508,
      "Full": 3509,
      "ana": 3510,
      "angu": 3511,
      "keep": 3512,
      "indu": 3513,
      "world": 3514,
      "immediately": 3515,
      "post": 3516,
      "still": 3517,
      "illance": 3518,
      "Prof": 3519,
      "TABL": 3520,
      "complainant": 3521,
      "society": 3522,
      "abol": 3523,
      "needed": 3524,
      "designated": 3525,
      "because": 3526,
      "consumers": 3527,
      "Greek": 3528,
      "TS": 3529,
      "ds": 3530,
      "war": 3531,
      "steel": 3532,
      "delegation": 3533,
      "Value": 3534,
      "62": 3535,
      "lod": 3536,
      "rem": 3537,
      "aculture": 3538,
      "TREAT": 3539,
      "Zoom": 3540,
      "ets": 3541,
      "vices": 3542,
      "ics": 3543,
      "conclusion": 3544,
      "opportunities": 3545,
      "TREATY": 3546,
      "cast": 3547,
      "gen": 3548,
      "ania": 3549,
      "altern": 3550,
      "assets": 3551,
      "seat": 3552,
      "interpre": 3553,
      "Selection": 3554,
      "Cohesion": 3555,
      "higher": 3556,
      "statis": 3557,
      "Spain": 3558,
      "Script": 3559,
      "industry": 3560,
      "broad": 3561,
      "cred": 3562,
      "actual": 3563,
      "notes": 3564,
      "oding": 3565,
      "ESTABL": 3566,
      "modified": 3567,
      "Provisions": 3568,
      "Main": 3569,
      "VII": 3570,
      "Read": 3571,
      "memo": 3572,
      "dig": 3573,
      "operate": 3574,
      "effor": 3575,
      "democ": 3576,
      "focus": 3577,
      "Ge": 3578,
      "Sta": 3579,
      "ping": 3580,
      "rent": 3581,
      "output": 3582,
      "Advocates": 3583,
      "CE": 3584,
      "Writ": 3585,
      "ones": 3586,
      "exem": 3587,
      "regis": 3588,
      "correct": 3589,
      "Finland": 3590,
      "model": 3591,
      "suspension": 3592,
      "percentage": 3593,
      "ESTABLISHING": 3594,
      "title": 3595,
      "parlia": 3596,
      "Wid": 3597,
      "empty": 3598,
      "object": 3599,
      "description": 3600,
      "deliver": 3601,
      "identified": 3602,
      "77": 3603,
      "C_": 3604,
      "mand": 3605,
      "ressive": 3606,
      "109": 3607,
      "issued": 3608,
      "enhanced": 3609,
      "identify": 3610,
      "Encry": 3611,
      "ati": 3612,
      "duly": 3613,
      "posi": 3614,
      "Instru": 3615,
      "subsequ": 3616,
      "developed": 3617,
      "compul": 3618,
      "iss": 3619,
      "ades": 3620,
      "execu": 3621,
      "code": 3622,
      "initiatives": 3623,
      "subsidi": 3624,
      "PP": 3625,
      "explo": 3626,
      "Replace": 3627,
      "overall": 3628,
      "written": 3629,
      "analysis": 3630,
      "].": 3631,
      "ca": 3632,
      "ients": 3633,
      "mb": 3634,
      "amer": 3635,
      "mart": 3636,
      "dispos": 3637,
      "Sept": 3638,
      "contributions": 3639,
      "excluding": 3640,
      "challenges": 3641,
      "Audio": 3642,
      "aging": 3643,
      "compens": 3644,
      "property": 3645,
      "debt": 3646,
      "HAVE": 3647,
      "problems": 3648,
      "UL": 3649,
      "mul": 3650,
      "outh": 3651,
      "choose": 3652,
      "que": 3653,
      "amber": 3654,
      "filter": 3655,
      "medium": 3656,
      "similar": 3657,
      "accepted": 3658,
      "consistent": 3659,
      "September": 3660,
      "vol": 3661,
      "mention": 3662,
      "stake": 3663,
      "involved": 3664,
      "Strateg": 3665,
      "Lay": 3666,
      "Pers": 3667,
      "ps": 3668,
      "cohesion": 3669,
      "integration": 3670,
      "Atlan": 3671,
      "GNOME": 3672,
      "DF": 3673,
      "arising": 3674,
      "users": 3675,
      "transf": 3676,
      "uctural": 3677,
      "Northern": 3678,
      "Management": 3679,
      "TITLE": 3680,
      "AG": 3681,
      "TR": 3682,
      "Us": 3683,
      "thematic": 3684,
      "aring": 3685,
      "amendment": 3686,
      "initial": 3687,
      "building": 3688,
      "agreed": 3689,
      "latest": 3690,
      "Be": 3691,
      "cut": 3692,
      "onts": 3693,
      "accoun": 3694,
      "Report": 3695,
      "automatically": 3696,
      "Selected": 3697,
      "called": 3698,
      "evidence": 3699,
      "contained": 3700,
      "Customs": 3701,
      "preparation": 3702,
      "satis": 3703,
      "Federal": 3704,
      "96": 3705,
      "OL": 3706,
      "promotion": 3707,
      "ung": 3708,
      "imported": 3709,
      "estination": 3710,
      "column": 3711,
      "ESCB": 3712,
      "Governors": 3713,
      "Contacts": 3714,
      "adequ": 3715,
      "LAND": 3716,
      "Rom": 3717,
      "Sum": 3718,
      "test": 3719,
      "union": 3720,
      "ifth": 3721,
      "Path": 3722,
      "cr": 3723,
      "sv": 3724,
      "wide": 3725,
      "thening": 3726,
      "held": 3727,
      "finance": 3728,
      "industrial": 3729,
      "match": 3730,
      "effectiveness": 3731,
      "Status": 3732,
      "estim": 3733,
      "requested": 3734,
      "53": 3735,
      "98": 3736,
      "Green": 3737,
      "ler": 3738,
      "essential": 3739,
      "Manager": 3740,
      "reserve": 3741,
      "63": 3742,
      "Id": 3743,
      "Langu": 3744,
      "conc": 3745,
      "statement": 3746,
      "Help": 3747,
      "68": 3748,
      "Sk": 3749,
      "enjo": 3750,
      "plann": 3751,
      "ERAL": 3752,
      "(.": 3753,
      "Lat": 3754,
      "xim": 3755,
      "onic": 3756,
      "loans": 3757,
      "infring": 3758,
      "surveillance": 3759,
      "difficul": 3760,
      "Atlantic": 3761,
      "eas": 3762,
      "graph": 3763,
      "nomin": 3764,
      "aspec": 3765,
      "major": 3766,
      "define": 3767,
      "official": 3768,
      "repealing": 3769,
      "aquaculture": 3770,
      "KING": 3771,
      "nuclear": 3772,
      "enic": 3773,
      "expiry": 3774,
      "www": 3775,
      "SECTION": 3776,
      "64": 3777,
      "Multi": 3778,
      "uce": 3779,
      "applies": 3780,
      "throughout": 3781,
      "COUN": 3782,
      "Screen": 3783,
      "CS": 3784,
      "che": 3785,
      "dou": 3786,
      "theme": 3787,
      "resh": 3788,
      "andid": 3789,
      "conver": 3790,
      "periods": 3791,
      "technologies": 3792,
      "increased": 3793,
      "CONSTITUTION": 3794,
      "DEC": 3795,
      "Preferences": 3796,
      "left": 3797,
      "resource": 3798,
      "Indi": 3799,
      "clo": 3800,
      "puter": 3801,
      "tionality": 3802,
      "increasing": 3803,
      "observations": 3804,
      "expected": 3805,
      "HER": 3806,
      "Oper": 3807,
      "ptional": 3808,
      "expression": 3809,
      "aved": 3810,
      "entitle": 3811,
      "859": 3812,
      "mobility": 3813,
      "Ori": 3814,
      "Red": 3815,
      "Tag": 3816,
      "emission": 3817,
      "abilities": 3818,
      "extended": 3819,
      "photo": 3820,
      "selves": 3821,
      "memory": 3822,
      "Executive": 3823,
      "enjoy": 3824,
      "\")": 3825,
      "8859": 3826,
      "Bar": 3827,
      "_Open": 3828,
      "ff": 3829,
      "super": 3830,
      "depos": 3831,
      "Cor": 3832,
      "raud": 3833,
      "Comple": 3834,
      "practice": 3835,
      "creation": 3836,
      "beginning": 3837,
      "registered": 3838,
      "adequate": 3839,
      "Car": 3840,
      "send": 3841,
      "child": 3842,
      "UNION": 3843,
      "completed": 3844,
      "Application": 3845,
      "substance": 3846,
      "finds": 3847,
      "association": 3848,
      "strengthening": 3849,
      "assigned": 3850,
      "IR": 3851,
      "yet": 3852,
      "oftw": 3853,
      "108": 3854,
      "beneficiary": 3855,
      "OC": 3856,
      "style": 3857,
      "seas": 3858,
      "Protection": 3859,
      "Chin": 3860,
      "charges": 3861,
      "benefit": 3862,
      "oftware": 3863,
      "\"{": 3864,
      "M_BAR_": 3865,
      "urg": 3866,
      "reduce": 3867,
      "istant": 3868,
      "ARTIC": 3869,
      "complaint": 3870,
      "designed": 3871,
      "schemes": 3872,
      "mentioned": 3873,
      "99": 3874,
      "Tur": 3875,
      "ners": 3876,
      "sched": 3877,
      "Arch": 3878,
      "sever": 3879,
      "Environ": 3880,
      "ANN": 3881,
      "reading": 3882,
      "controls": 3883,
      "obtaining": 3884,
      "plications": 3885,
      "investments": 3886,
      "Cancel": 3887,
      "ah": 3888,
      "pic": 3889,
      "istics": 3890,
      "produced": 3891,
      "look": 3892,
      "defini": 3893,
      "Windows": 3894,
      "benefits": 3895,
      "Hell": 3896,
      "expressed": 3897,
      "imposed": 3898,
      "dissem": 3899,
      "Presidents": 3900,
      "themselves": 3901,
      "Normal": 3902,
      "strategic": 3903,
      "citizen": 3904,
      "mutual": 3905,
      "Ban": 3906,
      "Great": 3907,
      "Ter": 3908,
      "ath": 3909,
      "ring": 3910,
      "plies": 3911,
      "compr": 3912,
      "original": 3913,
      "normal": 3914,
      "consumption": 3915,
      "Hellenic": 3916,
      "Te": 3917,
      "mig": 3918,
      "urement": 3919,
      "olutions": 3920,
      "enterprises": 3921,
      "seek": 3922,
      "strengthen": 3923,
      "infringe": 3924,
      "Est": 3925,
      "Rule": 3926,
      "Tri": 3927,
      "fu": 3928,
      "thing": 3929,
      "onto": 3930,
      "rection": 3931,
      "meetings": 3932,
      "EMI": 3933,
      "profession": 3934,
      "quotas": 3935,
      "remote": 3936,
      "stakeholders": 3937,
      "ken": 3938,
      "ensive": 3939,
      "ileges": 3940,
      "121": 3941,
      "Fundamental": 3942,
      "running": 3943,
      "improving": 3944,
      "Person": 3945,
      "966": 3946,
      "Case": 3947,
      "Word": 3948,
      "cultural": 3949,
      "oung": 3950,
      "Local": 3951,
      "items": 3952,
      "93": 3953,
      "live": 3954,
      "quota": 3955,
      "Ind": 3956,
      "extension": 3957,
      "simpl": 3958,
      "constitute": 3959,
      "complaints": 3960,
      "functions": 3961,
      "entitlements": 3962,
      "ARTICLE": 3963,
      "Pas": 3964,
      "grap": 3965,
      "nes": 3966,
      "cling": 3967,
      "incur": 3968,
      "achieving": 3969,
      "connected": 3970,
      "innovative": 3971,
      "criminal": 3972,
      "Player": 3973,
      "Amster": 3974,
      "distribution": 3975,
      "More": 3976,
      "sources": 3977,
      "cohol": 3978,
      "Item": 3979,
      "Partner": 3980,
      "aimed": 3981,
      "life": 3982,
      "Amsterdam": 3983,
      "candid": 3984,
      "hy": 3985,
      "prevention": 3986,
      "icative": 3987,
      "modify": 3988,
      "technological": 3989,
      "Cypr": 3990,
      "harmonisation": 3991,
      "69": 3992,
      "ased": 3993,
      "across": 3994,
      "irm": 3995,
      "End": 3996,
      "events": 3997,
      "ITY": 3998,
      "Framework": 3999,
      "invalid": 4000,
      "Disc": 4001,
      "associated": 4002,
      "IAL": 4003,
      "OP": 4004,
      "PG": 4005,
      "Sy": 4006,
      "note": 4007,
      "tract": 4008,
      "track": 4009,
      "submission": 4010,
      "Format": 4011,
      "Disable": 4012,
      "requests": 4013,
      "mbol": 4014,
      "concentr": 4015,
      "Cyprus": 4016,
      "FIN": 4017,
      "_Add": 4018,
      "great": 4019,
      "sw": 4020,
      "turn": 4021,
      "enforce": 4022,
      "alcohol": 4023,
      "simple": 4024,
      "1303": 4025,
      "progressive": 4026,
      "Icon": 4027,
      "ured": 4028,
      "wat": 4029,
      "alled": 4030,
      "ESS": 4031,
      "course": 4032,
      "Sl": 4033,
      "_Save": 4034,
      "entre": 4035,
      "producers": 4036,
      "ESF": 4037,
      "useful": 4038,
      "background": 4039,
      "Update": 4040,
      "excessive": 4041,
      "recycling": 4042,
      "Ho": 4043,
      "Ro": 4044,
      "hour": 4045,
      "undertake": 4046,
      "entities": 4047,
      "Connection": 4048,
      "AD": 4049,
      "MS": 4050,
      "SP": 4051,
      "Your": 4052,
      "artic": 4053,
      "unknown": 4054,
      "species": 4055,
      "requires": 4056,
      "instead": 4057,
      "strategies": 4058,
      "hearts": 4059,
      "incurred": 4060,
      "71": 4061,
      "ET": 4062,
      "Sa": 4063,
      "base": 4064,
      "ially": 4065,
      "said": 4066,
      "ende": 4067,
      "echn": 4068,
      "bered": 4069,
      "2019": 4070,
      "amb": 4071,
      "Three": 4072,
      "processed": 4073,
      "constitutional": 4074,
      "jobs": 4075,
      "Organ": 4076,
      "aspects": 4077,
      "Low": 4078,
      "Top": 4079,
      "meat": 4080,
      "clipboard": 4081,
      "upd": 4082,
      "indicative": 4083,
      "transmission": 4084,
      "going": 4085,
      "rug": 4086,
      "ORT": 4087,
      "importance": 4088,
      "Switch": 4089,
      "partnership": 4090,
      "72": 4091,
      "Day": 4092,
      "squ": 4093,
      "young": 4094,
      "“%": 4095,
      "behalf": 4096,
      "consent": 4097,
      "waste": 4098,
      "summary": 4099,
      "decides": 4100,
      "Whether": 4101,
      "times": 4102,
      "consequ": 4103,
      "representative": 4104,
      "menu": 4105,
      "Load": 4106,
      "driver": 4107,
      "characteristics": 4108,
      "ceiling": 4109,
      "Cz": 4110,
      "bre": 4111,
      "women": 4112,
      "lower": 4113,
      "Device": 4114,
      "windows": 4115,
      "ength": 4116,
      "competitiveness": 4117,
      "Islands": 4118,
      "declared": 4119,
      "subsidiarity": 4120,
      "EEA": 4121,
      "National": 4122,
      "Rename": 4123,
      "icro": 4124,
      "umbered": 4125,
      "Parliaments": 4126,
      "prin": 4127,
      "duce": 4128,
      "ateral": 4129,
      "allowed": 4130,
      "affected": 4131,
      "facilities": 4132,
      "demon": 4133,
      "collection": 4134,
      "credit": 4135,
      "Bus": 4136,
      "aster": 4137,
      "indication": 4138,
      "several": 4139,
      "bum": 4140,
      "mix": 4141,
      "withdraw": 4142,
      "annel": 4143,
      "questions": 4144,
      "Czech": 4145,
      "AS": 4146,
      "Brit": 4147,
      "hec": 4148,
      "ope": 4149,
      "bles": 4150,
      "coal": 4151,
      "soon": 4152,
      "connect": 4153,
      "linked": 4154,
      "falling": 4155,
      "mechanisms": 4156,
      "Belgium": 4157,
      "demonstr": 4158,
      "Gal": 4159,
      "Tot": 4160,
      "oil": 4161,
      "ats": 4162,
      "itself": 4163,
      "pet": 4164,
      "quer": 4165,
      "Engl": 4166,
      "tention": 4167,
      "reduced": 4168,
      "departments": 4169,
      "Instrument": 4170,
      "LS": 4171,
      "One": 4172,
      "Pe": 4173,
      "Session": 4174,
      "cris": 4175,
      "since": 4176,
      "zone": 4177,
      "ably": 4178,
      "ancing": 4179,
      "illic": 4180,
      "discus": 4181,
      "script": 4182,
      "Junk": 4183,
      "negotiations": 4184,
      "Partnership": 4185,
      "(*": 4186,
      "Field": 4187,
      "Gl": 4188,
      "mac": 4189,
      "assis": 4190,
      "preser": 4191,
      "borders": 4192,
      "introduced": 4193,
      "English": 4194,
      "anch": 4195,
      "composition": 4196,
      "developments": 4197,
      "panies": 4198,
      "substances": 4199,
      "Summary": 4200,
      "%.": 4201,
      "91": 4202,
      "Pho": 4203,
      "She": 4204,
      "yl": 4205,
      "ends": 4206,
      "modification": 4207,
      "Assistant": 4208,
      "committees": 4209,
      "recognition": 4210,
      "decided": 4211,
      "difficulties": 4212,
      "Britain": 4213,
      "Ta": 4214,
      "osen": 4215,
      "permanent": 4216,
      ".'": 4217,
      "Fol": 4218,
      "Rain": 4219,
      "err": 4220,
      "propose": 4221,
      "stability": 4222,
      "ides": 4223,
      "undertaken": 4224,
      "Level": 4225,
      "Label": 4226,
      "experts": 4227,
      "electronic": 4228,
      "experience": 4229,
      "closed": 4230,
      "amera": 4231,
      "\";": 4232,
      "El": 4233,
      "Mis": 4234,
      "eight": 4235,
      "fle": 4236,
      "fifth": 4237,
      "uses": 4238,
      "2015": 4239,
      "ERN": 4240,
      "responsibilities": 4241,
      "Bookmark": 4242,
      "Background": 4243,
      "sheet": 4244,
      "France": 4245,
      "created": 4246,
      "occurred": 4247,
      "Li": 4248,
      "roll": 4249,
      "rade": 4250,
      "interim": 4251,
      "1997": 4252,
      "determining": 4253,
      "Here": 4254,
      "involve": 4255,
      "safeguard": 4256,
      "justice": 4257,
      "sen": 4258,
      "inspec": 4259,
      "Anju": 4260,
      "servation": 4261,
      "reads": 4262,
      "commitment": 4263,
      "Directory": 4264,
      "intenance": 4265,
      "accounting": 4266,
      "Anjuta": 4267,
      "61": 4268,
      "fraud": 4269,
      "sory": 4270,
      "income": 4271,
      "asks": 4272,
      "procedural": 4273,
      "Access": 4274,
      "ginal": 4275,
      "writing": 4276,
      "holding": 4277,
      "proportionality": 4278,
      "studies": 4279,
      "Category": 4280,
      "Dan": 4281,
      "aud": 4282,
      "uit": 4283,
      "ually": 4284,
      "ream": 4285,
      "isco": 4286,
      "operating": 4287,
      "Actions": 4288,
      "Forward": 4289,
      "spades": 4290,
      "ological": 4291,
      "North": 4292,
      "adjustments": 4293,
      "dialogue": 4294,
      "01": 4295,
      "Ber": 4296,
      "Men": 4297,
      "Note": 4298,
      "Test": 4299,
      "label": 4300,
      "preview": 4301,
      "disable": 4302,
      "partners": 4303,
      "module": 4304,
      "loaded": 4305,
      "Vis": 4306,
      "dr": 4307,
      "fonts": 4308,
      "iries": 4309,
      "ink": 4310,
      "alarm": 4311,
      "fication": 4312,
      "elf": 4313,
      "achograph": 4314,
      "2018": 4315,
      "inclusion": 4316,
      "grad": 4317,
      "Track": 4318,
      "Total": 4319,
      "ior": 4320,
      "nel": 4321,
      "voting": 4322,
      "thus": 4323,
      "defic": 4324,
      "plit": 4325,
      "tracting": 4326,
      "herein": 4327,
      "offices": 4328,
      "grants": 4329,
      "Control": 4330,
      "licence": 4331,
      "accordingly": 4332,
      "Output": 4333,
      "ANNEX": 4334,
      "Found": 4335,
      "sed": 4336,
      "plain": 4337,
      "umb": 4338,
      "procurement": 4339,
      "response": 4340,
      "Research": 4341,
      "atches": 4342,
      "Directors": 4343,
      "favour": 4344,
      "Fre": 4345,
      "database": 4346,
      "smart": 4347,
      "uts": 4348,
      "plans": 4349,
      "rail": 4350,
      "ighting": 4351,
      "eligibility": 4352,
      "GNU": 4353,
      "Judge": 4354,
      "did": 4355,
      "ffic": 4356,
      "tag": 4357,
      "preh": 4358,
      "placing": 4359,
      "Activ": 4360,
      "Trash": 4361,
      "flag": 4362,
      "calculated": 4363,
      "EGTC": 4364,
      "absence": 4365,
      "Lith": 4366,
      "South": 4367,
      "detec": 4368,
      "chosen": 4369,
      "maritime": 4370,
      "validity": 4371,
      "Version": 4372,
      "Chinese": 4373,
      "Call": 4374,
      "uk": 4375,
      "unch": 4376,
      "maintenance": 4377,
      "encry": 4378,
      "Secret": 4379,
      "Maritime": 4380,
      "Internet": 4381,
      "Empty": 4382,
      "Special": 4383,
      "aditional": 4384,
      "queror": 4385,
      "Av": 4386,
      "Ef": 4387,
      "Human": 4388,
      "Pan": 4389,
      "declar": 4390,
      "possibility": 4391,
      "ava": 4392,
      "seconds": 4393,
      "tools": 4394,
      "mechanism": 4395,
      "Photo": 4396,
      "87": 4397,
      "KS": 4398,
      "wa": 4399,
      "irregular": 4400,
      "applicant": 4401,
      "disk": 4402,
      "descri": 4403,
      "Governments": 4404,
      "Column": 4405,
      "elect": 4406,
      "associations": 4407,
      "Lisbon": 4408,
      "hereinafter": 4409,
      "Gener": 4410,
      "might": 4411,
      "oth": 4412,
      "ico": 4413,
      "Star": 4414,
      "Unit": 4415,
      "Reply": 4416,
      "amily": 4417,
      "renumbered": 4418,
      "structure": 4419,
      "1992": 4420,
      "EAFR": 4421,
      "EAFRD": 4422,
      "A_": 4423,
      "Light": 4424,
      "Rot": 4425,
      "history": 4426,
      "mm": 4427,
      "protocol": 4428,
      "advisory": 4429,
      "verse": 4430,
      "print": 4431,
      "ERDF": 4432,
      "incor": 4433,
      "Deta": 4434,
      "exceptional": 4435,
      "identification": 4436,
      "forwarded": 4437,
      "dissemination": 4438,
      "Stop": 4439,
      "_m": 4440,
      "break": 4441,
      "ensu": 4442,
      "formal": 4443,
      "secure": 4444,
      "intervention": 4445,
      "140": 4446,
      "fishery": 4447,
      "respectively": 4448,
      "substanti": 4449,
      "partition": 4450,
      "',": 4451,
      "Draw": 4452,
      "OV": 4453,
      "bor": 4454,
      "gg": 4455,
      "saved": 4456,
      "ache": 4457,
      "vege": 4458,
      "sea": 4459,
      "abling": 4460,
      "entrust": 4461,
      "conflic": 4462,
      "affecting": 4463,
      "demand": 4464,
      "steps": 4465,
      "MAN": 4466,
      "Yes": 4467,
      "_Copy": 4468,
      "ood": 4469,
      "saving": 4470,
      "plied": 4471,
      "etc": 4472,
      "companies": 4473,
      "conclude": 4474,
      "agriculture": 4475,
      "Install": 4476,
      "privileges": 4477,
      "revision": 4478,
      "prehensive": 4479,
      "Cap": 4480,
      "Creat": 4481,
      "Cisco": 4482,
      "racy": 4483,
      "zz": 4484,
      "tables": 4485,
      "mak": 4486,
      "Initi": 4487,
      "Info": 4488,
      "Process": 4489,
      "ameters": 4490,
      "processes": 4491,
      "allows": 4492,
      "reasonable": 4493,
      "equals": 4494,
      "manager": 4495,
      "German": 4496,
      "positions": 4497,
      "reshold": 4498,
      "infringement": 4499,
      "Lithu": 4500,
      "Card": 4501,
      "hav": 4502,
      "iversity": 4503,
      "mouse": 4504,
      "threat": 4505,
      "ison": 4506,
      "Theme": 4507,
      "avy": 4508,
      "string": 4509,
      "interven": 4510,
      "places": 4511,
      "1995": 4512,
      "subparagraphs": 4513,
      "Poland": 4514,
      "penalties": 4515,
      "Konqueror": 4516,
      "greater": 4517,
      "crisis": 4518,
      "Alar": 4519,
      "tachograph": 4520,
      "0000": 4521,
      "1993": 4522,
      "receip": 4523,
      "bookmarks": 4524,
      "subsequent": 4525,
      "ather": 4526,
      "index": 4527,
      "cohe": 4528,
      "ECSC": 4529,
      "inclusive": 4530,
      "therein": 4531,
      "giving": 4532,
      "learning": 4533,
      "elected": 4534,
      "communicated": 4535,
      "around": 4536,
      "names": 4537,
      "subscribed": 4538,
      "compulsory": 4539,
      "disposal": 4540,
      "nominated": 4541,
      "Nations": 4542,
      "PS": 4543,
      "QU": 4544,
      "iation": 4545,
      "paper": 4546,
      "’,": 4547,
      "height": 4548,
      "ECH": 4549,
      "adopting": 4550,
      "107": 4551,
      "188": 4552,
      "employed": 4553,
      "Italy": 4554,
      "advant": 4555,
      "About": 4556,
      "Merger": 4557,
      "immunities": 4558,
      "94": 4559,
      "Bud": 4560,
      "IX": 4561,
      "S_": 4562,
      "house": 4563,
      "ues": 4564,
      "really": 4565,
      "ille": 4566,
      "iring": 4567,
      "rati": 4568,
      "presented": 4569,
      "ferences": 4570,
      "Code": 4571,
      "Viewer": 4572,
      "guarantees": 4573,
      "Position": 4574,
      "(*)": 4575,
      "cup": 4576,
      "gas": 4577,
      "emer": 4578,
      "agency": 4579,
      "withstanding": 4580,
      "Command": 4581,
      "104": 4582,
      "carbon": 4583,
      "equality": 4584,
      "Director": 4585,
      "Representative": 4586,
      "emissions": 4587,
      "SA": 4588,
      "_New": 4589,
      "fig": 4590,
      "sl": 4591,
      "once": 4592,
      "ene": 4593,
      "white": 4594,
      "Inte": 4595,
      "transmit": 4596,
      "loss": 4597,
      "Printer": 4598,
      "competences": 4599,
      "ology": 4600,
      "receive": 4601,
      "Indian": 4602,
      "79": 4603,
      "Bul": 4604,
      "illa": 4605,
      "Stand": 4606,
      "Partic": 4607,
      "1998": 4608,
      "reasoned": 4609,
      "PART": 4610,
      "Malta": 4611,
      "package": 4612,
      "assisted": 4613,
      "Saving": 4614,
      "Vari": 4615,
      "Z_BAR_": 4616,
      "_D": 4617,
      "ole": 4618,
      "syn": 4619,
      "solid": 4620,
      "tim": 4621,
      "editor": 4622,
      "ottom": 4623,
      "ames": 4624,
      "tificates": 4625,
      "contributing": 4626,
      "surance": 4627,
      "properties": 4628,
      "efforts": 4629,
      "Strategy": 4630,
      "AGRE": 4631,
      "enforcement": 4632,
      "Area": 4633,
      "OU": 4634,
      "him": 4635,
      "ived": 4636,
      "removed": 4637,
      "conservation": 4638,
      "contents": 4639,
      "ills": 4640,
      "prelim": 4641,
      "opening": 4642,
      "participants": 4643,
      "targets": 4644,
      "designation": 4645,
      "Make": 4646,
      "reducing": 4647,
      "----": 4648,
      "quantitative": 4649,
      "issile": 4650,
      "Banks": 4651,
      "Follow": 4652,
      "Civil": 4653,
      "Port": 4654,
      "_S": 4655,
      "green": 4656,
      "rase": 4657,
      "ofar": 4658,
      "Inc": 4659,
      "reflec": 4660,
      "siz": 4661,
      "velope": 4662,
      "living": 4663,
      "1996": 4664,
      "Associ": 4665,
      "material": 4666,
      "enhance": 4667,
      "inquiries": 4668,
      "encourage": 4669,
      "satisf": 4670,
      "FT": 4671,
      "reporting": 4672,
      "const": 4673,
      "opened": 4674,
      "planation": 4675,
      "reached": 4676,
      "transparency": 4677,
      "02": 4678,
      "Span": 4679,
      "bound": 4680,
      "gence": 4681,
      "atures": 4682,
      "Until": 4683,
      "enda": 4684,
      "elim": 4685,
      "tured": 4686,
      "Whereas": 4687,
      "elections": 4688,
      "completion": 4689,
      "panied": 4690,
      "Module": 4691,
      "Header": 4692,
      "Portugu": 4693,
      "97": 4694,
      "PORT": 4695,
      "vak": 4696,
      "comprehensive": 4697,
      "pute": 4698,
      "Austr": 4699,
      "Authentication": 4700,
      "instance": 4701,
      "partial": 4702,
      "Attachment": 4703,
      "stocks": 4704,
      "professional": 4705,
      "Done": 4706,
      "Further": 4707,
      "_All": 4708,
      "}\".": 4709,
      "estern": 4710,
      "computer": 4711,
      "spective": 4712,
      "118": 4713,
      "links": 4714,
      "SSL": 4715,
      "waters": 4716,
      "Portuguese": 4717,
      "Vie": 4718,
      "along": 4719,
      "seven": 4720,
      "urs": 4721,
      "ables": 4722,
      "Produc": 4723,
      "minutes": 4724,
      "Chan": 4725,
      "Entry": 4726,
      "111": 4727,
      "pload": 4728,
      "traffic": 4729,
      "Off": 4730,
      "Norway": 4731,
      "Cyr": 4732,
      "accompanied": 4733,
      "Language": 4734,
      "Paste": 4735,
      "NO": 4736,
      "Tasks": 4737,
      "pul": 4738,
      "ingred": 4739,
      "uctures": 4740,
      "ighbour": 4741,
      "fruit": 4742,
      "phys": 4743,
      "installed": 4744,
      "exceeding": 4745,
      "consistency": 4746,
      "Bef": 4747,
      "SE": 4748,
      "Techn": 4749,
      "util": 4750,
      "onia": 4751,
      "ership": 4752,
      "cept": 4753,
      "ift": 4754,
      "pover": 4755,
      "early": 4756,
      "purch": 4757,
      "condition": 4758,
      "goal": 4759,
      "requirement": 4760,
      "hecta": 4761,
      "Before": 4762,
      "GEN": 4763,
      "Match": 4764,
      "PL": 4765,
      "Ret": 4766,
      "function": 4767,
      "my": 4768,
      "solutions": 4769,
      "ism": 4770,
      "ically": 4771,
      "resolution": 4772,
      "Institu": 4773,
      "reli": 4774,
      "presentation": 4775,
      "coordinate": 4776,
      "Environment": 4777,
      "poverty": 4778,
      "Core": 4779,
      "During": 4780,
      "ded": 4781,
      "fissile": 4782,
      "vine": 4783,
      "orient": 4784,
      "shop": 4785,
      "shared": 4786,
      "dead": 4787,
      "advice": 4788,
      "constituted": 4789,
      "parent": 4790,
      "proportionate": 4791,
      "Original": 4792,
      "Bas": 4793,
      "City": 4794,
      "ht": 4795,
      "ina": 4796,
      "rein": 4797,
      "prepa": 4798,
      "And": 4799,
      "Sea": 4800,
      "227": 4801,
      "EAEC": 4802,
      "covering": 4803,
      "profile": 4804,
      "inquiry": 4805,
      "square": 4806,
      "Agr": 4807,
      "CIT": 4808,
      "cause": 4809,
      "drug": 4810,
      "gain": 4811,
      "ran": 4812,
      "zing": 4813,
      "threshold": 4814,
      "arily": 4815,
      "cooperate": 4816,
      "ditions": 4817,
      "registration": 4818,
      "entity": 4819,
      "animals": 4820,
      "governance": 4821,
      "media": 4822,
      "Always": 4823,
      "adjustment": 4824,
      "***": 4825,
      "problem": 4826,
      "Slovak": 4827,
      "War": 4828,
      "kind": 4829,
      "pany": 4830,
      "rie": 4831,
      "compar": 4832,
      "update": 4833,
      "transactions": 4834,
      "drawing": 4835,
      "prohibited": 4836,
      "CIL": 4837,
      "smo": 4838,
      "eting": 4839,
      "THER": 4840,
      "Should": 4841,
      "counter": 4842,
      "recovery": 4843,
      "delivery": 4844,
      "Priv": 4845,
      "Personal": 4846,
      "Australia": 4847,
      "Cyrillic": 4848,
      ".’;": 4849,
      "Base": 4850,
      "Get": 4851,
      "Rest": 4852,
      "Table": 4853,
      "Vice": 4854,
      "mid": 4855,
      "reti": 4856,
      "offer": 4857,
      "raised": 4858,
      "occup": 4859,
      "claim": 4860,
      "Decisions": 4861,
      "forest": 4862,
      "pair": 4863,
      "Images": 4864,
      "animal": 4865,
      "foster": 4866,
      "reserves": 4867,
      "ceilings": 4868,
      "Template": 4869,
      "lodged": 4870,
      "COUNCIL": 4871,
      "Spanish": 4872,
      "DESI": 4873,
      "chamber": 4874,
      "189": 4875,
      "Employment": 4876,
      "DPI": 4877,
      "deficit": 4878,
      "Lithuania": 4879,
      "Agric": 4880,
      "82": 4881,
      "CF": 4882,
      "DRA": 4883,
      "_Delete": 4884,
      "envis": 4885,
      "edit": 4886,
      "aces": 4887,
      "ilot": 4888,
      "deg": 4889,
      "chron": 4890,
      "irms": 4891,
      "works": 4892,
      "1994": 4893,
      "REG": 4894,
      "visible": 4895,
      "competitive": 4896,
      "infrastructures": 4897,
      "Bras": 4898,
      "Memo": 4899,
      "Grand": 4900,
      "Turk": 4901,
      "Menu": 4902,
      "prepared": 4903,
      "Java": 4904,
      "Py": 4905,
      "award": 4906,
      "ml": 4907,
      "rad": 4908,
      "vo": 4909,
      "ante": 4910,
      "stream": 4911,
      "Communication": 4912,
      "avail": 4913,
      "125": 4914,
      "External": 4915,
      "Colors": 4916,
      "Restore": 4917,
      "sustainability": 4918,
      "PROTO": 4919,
      "failure": 4920,
      "interpretation": 4921,
      "PROTOCO": 4922,
      "76": 4923,
      "Op": 4924,
      "}'": 4925,
      "etal": 4926,
      "porter": 4927,
      "dispute": 4928,
      "particulars": 4929,
      "unanimity": 4930,
      "licences": 4931,
      "Documents": 4932,
      "Specific": 4933,
      "democracy": 4934,
      "89": 4935,
      "_n": 4936,
      "length": 4937,
      "allet": 4938,
      "agram": 4939,
      "lient": 4940,
      "Setup": 4941,
      "Monitor": 4942,
      "transition": 4943,
      "Login": 4944,
      "Advocate": 4945,
      "Bug": 4946,
      "Brasero": 4947,
      "Hung": 4948,
      "Ice": 4949,
      "MI": 4950,
      "ha": 4951,
      "construc": 4952,
      "imal": 4953,
      "permit": 4954,
      "substitu": 4955,
      "weight": 4956,
      "126": 4957,
      "consis": 4958,
      "Copyright": 4959,
      "provisional": 4960,
      "regularly": 4961,
      "adaptation": 4962,
      "axis": 4963,
      "MAJ": 4964,
      "grape": 4965,
      "ratio": 4966,
      "CC": 4967,
      "Cro": 4968,
      "LD": 4969,
      "VIII": 4970,
      "Western": 4971,
      "gation": 4972,
      "ias": 4973,
      "attention": 4974,
      "Refresh": 4975,
      "Overwrite": 4976,
      "pattern": 4977,
      "ECHR": 4978,
      "Hungary": 4979,
      "But": 4980,
      "LAR": 4981,
      "RING": 4982,
      "bro": 4983,
      "pages": 4984,
      "ware": 4985,
      "ons": 4986,
      "align": 4987,
      "ita": 4988,
      "irth": 4989,
      "trust": 4990,
      "assist": 4991,
      "transnational": 4992,
      "izer": 4993,
      "Annexes": 4994,
      "modal": 4995,
      "Recent": 4996,
      "toolbar": 4997,
      "enabled": 4998,
      "communicate": 4999,
      "DOM": 5000,
      "exploitation": 5001,
      "DRAFT": 5002,
      "EIT": 5003,
      "IAN": 5004,
      "San": 5005,
      "_Help": 5006,
      "gender": 5007,
      "nine": 5008,
      "eds": 5009,
      "Innov": 5010,
      "ample": 5011,
      "authentication": 5012,
      "Prog": 5013,
      "download": 5014,
      "Eng": 5015,
      "157": 5016,
      "idential": 5017,
      "offline": 5018,
      "Issu": 5019,
      "calculation": 5020,
      "attachment": 5021,
      "replacement": 5022,
      "Width": 5023,
      "GENERAL": 5024,
      "Dri": 5025,
      "Fac": 5026,
      "fit": 5027,
      "micro": 5028,
      "ores": 5029,
      "tex": 5030,
      "enabling": 5031,
      "andom": 5032,
      "imbur": 5033,
      "ciliation": 5034,
      "tric": 5035,
      "105": 5036,
      "Dele": 5037,
      "involving": 5038,
      "ubs": 5039,
      "Available": 5040,
      "MAR": 5041,
      "eth": 5042,
      "home": 5043,
      "unt": 5044,
      "delive": 5045,
      "impose": 5046,
      "implications": 5047,
      "tivity": 5048,
      "ESTY": 5049,
      "Short": 5050,
      "Active": 5051,
      "Automatic": 5052,
      "sites": 5053,
      "independence": 5054,
      "Black": 5055,
      "existence": 5056,
      "Sloven": 5057,
      "supervision": 5058,
      "Standard": 5059,
      "preliminary": 5060,
      "delivered": 5061,
      ".\".": 5062,
      "86": 5063,
      "LIA": 5064,
      "Mag": 5065,
      "NE": 5066,
      "Paper": 5067,
      "frame": 5068,
      "pts": 5069,
      "espec": 5070,
      "itary": 5071,
      "Arab": 5072,
      "meters": 5073,
      "plat": 5074,
      "2017": 5075,
      "180": 5076,
      "oked": 5077,
      "ucturing": 5078,
      "stored": 5079,
      "Profile": 5080,
      "Encryption": 5081,
      "Details": 5082,
      "MAJESTY": 5083,
      "especially": 5084,
      "Cut": 5085,
      "lap": 5086,
      "verify": 5087,
      "teed": 5088,
      "accorded": 5089,
      "136": 5090,
      "Reset": 5091,
      "derogations": 5092,
      "guaranteed": 5093,
      "Regional": 5094,
      "likely": 5095,
      "Object": 5096,
      "updated": 5097,
      "browser": 5098,
      "cod": 5099,
      "pare": 5100,
      "remin": 5101,
      "clubs": 5102,
      "Consul": 5103,
      "transit": 5104,
      "Week": 5105,
      "originating": 5106,
      "tifying": 5107,
      "strength": 5108,
      "Post": 5109,
      "header": 5110,
      "quantity": 5111,
      "insofar": 5112,
      "renewable": 5113,
      "DU": 5114,
      "Sort": 5115,
      "Tw": 5116,
      "XML": 5117,
      "ipl": 5118,
      "ker": 5119,
      "pix": 5120,
      "uled": 5121,
      "x2018": 5122,
      "ecute": 5123,
      "plant": 5124,
      "Chec": 5125,
      "Defin": 5126,
      "pending": 5127,
      "liber": 5128,
      "phrase": 5129,
      "versal": 5130,
      "discipl": 5131,
      "lists": 5132,
      "situations": 5133,
      "Quit": 5134,
      "ought": 5135,
      "courts": 5136,
      "Archive": 5137,
      "Secretary": 5138,
      "LIAMENT": 5139,
      "'{": 5140,
      "Map": 5141,
      "Since": 5142,
      "fri": 5143,
      "gies": 5144,
      "x2019": 5145,
      "ints": 5146,
      "ars": 5147,
      "entation": 5148,
      "exit": 5149,
      "ratic": 5150,
      "Requ": 5151,
      "istribu": 5152,
      "ipients": 5153,
      "avig": 5154,
      "marine": 5155,
      "crime": 5156,
      "thereto": 5157,
      "Fax": 5158,
      "indicated": 5159,
      "fixing": 5160,
      "branch": 5161,
      "jointly": 5162,
      "template": 5163,
      "fulfilled": 5164,
      "Stras": 5165,
      "consideration": 5166,
      "skills": 5167,
      "quantities": 5168,
      "statistical": 5169,
      "BO": 5170,
      "DM": 5171,
      "atic": 5172,
      "va": 5173,
      "peti": 5174,
      "exports": 5175,
      "finally": 5176,
      "sitive": 5177,
      "structural": 5178,
      "views": 5179,
      "tifications": 5180,
      "facility": 5181,
      "vessels": 5182,
      "Folders": 5183,
      "Notwithstanding": 5184,
      "Appoint": 5185,
      "PARLIAMENT": 5186,
      "preparatory": 5187,
      "suspended": 5188,
      "parliaments": 5189,
      "Tribunal": 5190,
      "History": 5191,
      "MP": 5192,
      "OK": 5193,
      "eks": 5194,
      "na": 5195,
      "reform": 5196,
      "thirds": 5197,
      "Explanation": 5198,
      "238": 5199,
      "What": 5200,
      "maladministration": 5201,
      "technology": 5202,
      "checked": 5203,
      "Signature": 5204,
      "stock": 5205,
      "DECLAR": 5206,
      "Croati": 5207,
      "Browser": 5208,
      "Pal": 5209,
      "Sol": 5210,
      "Snow": 5211,
      "_Remove": 5212,
      "stop": 5213,
      "retain": 5214,
      "eco": 5215,
      "imension": 5216,
      "127": 5217,
      "185": 5218,
      "148": 5219,
      "thereby": 5220,
      "connections": 5221,
      "maintaining": 5222,
      "enhancing": 5223,
      "partially": 5224,
      "plugins": 5225,
      "consultations": 5226,
      "receipt": 5227,
      "AGREED": 5228,
      "Progress": 5229,
      "LIF": 5230,
      "bt": 5231,
      "reimbur": 5232,
      "conversion": 5233,
      "Adjust": 5234,
      "community": 5235,
      "restructuring": 5236,
      "vocational": 5237,
      "IMAP": 5238,
      "creating": 5239,
      "transparent": 5240,
      "Galile": 5241,
      "Strasbourg": 5242,
      "Secon": 5243,
      "da": 5244,
      "mate": 5245,
      "oke": 5246,
      "remed": 5247,
      "iscal": 5248,
      "ording": 5249,
      "odiversity": 5250,
      "clude": 5251,
      "poll": 5252,
      "whenever": 5253,
      "farmer": 5254,
      "ATIONS": 5255,
      "Flag": 5256,
      "digital": 5257,
      "Alarm": 5258,
      "Innovation": 5259,
      "reminder": 5260,
      "Galileo": 5261,
      "84": 5262,
      "Bal": 5263,
      "Point": 5264,
      "nd": 5265,
      "oration": 5266,
      "estic": 5267,
      "entail": 5268,
      "produce": 5269,
      "week": 5270,
      "129": 5271,
      "keys": 5272,
      "tised": 5273,
      "exercised": 5274,
      "Lock": 5275,
      "Sche": 5276,
      "Certain": 5277,
      "tribunal": 5278,
      "supplemented": 5279,
      "multil": 5280,
      "KINGDOM": 5281,
      "05": 5282,
      "83": 5283,
      "Client": 5284,
      "XX": 5285,
      "ee": 5286,
      "arms": 5287,
      "itable": 5288,
      "raft": 5289,
      "authentic": 5290,
      "izing": 5291,
      "residence": 5292,
      "251": 5293,
      "Album": 5294,
      "backup": 5295,
      "norm": 5296,
      "Vertical": 5297,
      "Memory": 5298,
      "definitions": 5299,
      "LIFE": 5300,
      "300": 5301,
      "74": 5302,
      "kil": 5303,
      "eration": 5304,
      "outer": 5305,
      "acted": 5306,
      "seen": 5307,
      "ump": 5308,
      "actors": 5309,
      "strong": 5310,
      "consolid": 5311,
      "represented": 5312,
      "allowing": 5313,
      "Blue": 5314,
      "website": 5315,
      "started": 5316,
      "COMMUN": 5317,
      "120": 5318,
      "Ir": 5319,
      "Sur": 5320,
      "Tim": 5321,
      "nut": 5322,
      "pren": 5323,
      "solution": 5324,
      "lets": 5325,
      "belling": 5326,
      "otor": 5327,
      "operator": 5328,
      "103": 5329,
      "authorise": 5330,
      "youth": 5331,
      "consulted": 5332,
      "Allow": 5333,
      "tonnes": 5334,
      "attached": 5335,
      "Build": 5336,
      "successfully": 5337,
      "convergence": 5338,
      "entrusted": 5339,
      "81": 5340,
      "GDP": 5341,
      "ctic": 5342,
      "ither": 5343,
      "root": 5344,
      "argu": 5345,
      "agg": 5346,
      "admis": 5347,
      "express": 5348,
      "ratification": 5349,
      "etch": 5350,
      "Replaced": 5351,
      "transl": 5352,
      "includes": 5353,
      "Acc": 5354,
      "236": 5355,
      "performed": 5356,
      "Minis": 5357,
      "statutes": 5358,
      "Quick": 5359,
      "migration": 5360,
      "Association": 5361,
      "DESIRING": 5362,
      "CAP": 5363,
      "PA": 5364,
      "SM": 5365,
      "UG": 5366,
      "breach": 5367,
      "flow": 5368,
      "acters": 5369,
      "proxy": 5370,
      "illegal": 5371,
      "Revert": 5372,
      "true": 5373,
      "101": 5374,
      "numbers": 5375,
      "determination": 5376,
      "Couldn": 5377,
      "Height": 5378,
      "290": 5379,
      "distor": 5380,
      "freedoms": 5381,
      "study": 5382,
      "calls": 5383,
      "Portugal": 5384,
      "transfers": 5385,
      "comprising": 5386,
      "Particip": 5387,
      "DA": 5388,
      "Flo": 5389,
      "LA": 5390,
      "bil": 5391,
      "mass": 5392,
      "ox": 5393,
      "oks": 5394,
      "phas": 5395,
      "uling": 5396,
      "plen": 5397,
      "Implement": 5398,
      "engine": 5399,
      "International": 5400,
      "maintained": 5401,
      "adjusted": 5402,
      "balances": 5403,
      "Tariff": 5404,
      "Facility": 5405,
      "Business": 5406,
      "Database": 5407,
      "SV": 5408,
      "Wa": 5409,
      "wrap": 5410,
      "entries": 5411,
      "belong": 5412,
      "205": 5413,
      "client": 5414,
      "tually": 5415,
      "viously": 5416,
      "grading": 5417,
      "encoding": 5418,
      "domestic": 5419,
      "Remote": 5420,
      "Event": 5421,
      "improvement": 5422,
      "opportunity": 5423,
      "Categories": 5424,
      "fuel": 5425,
      "candidate": 5426,
      "Effec": 5427,
      "Bulgar": 5428,
      "Bur": 5429,
      "IES": 5430,
      "REC": 5431,
      "mach": 5432,
      "tun": 5433,
      "envelope": 5434,
      "istic": 5435,
      "arri": 5436,
      "devices": 5437,
      "avour": 5438,
      "ighted": 5439,
      "106": 5440,
      "carri": 5441,
      "protective": 5442,
      "tari": 5443,
      "aids": 5444,
      "pane": 5445,
      "company": 5446,
      "\\\\{": 5447,
      "syner": 5448,
      "mandatory": 5449,
      "double": 5450,
      "children": 5451,
      "vegetables": 5452,
      "MIME": 5453,
      "friend": 5454,
      "normally": 5455,
      "Center": 5456,
      "Mat": 5457,
      "cing": 5458,
      "lack": 5459,
      "rise": 5460,
      "whe": 5461,
      "stages": 5462,
      "perspective": 5463,
      "labelling": 5464,
      "secu": 5465,
      "interface": 5466,
      "ultane": 5467,
      "pursued": 5468,
      "Cooperation": 5469,
      "spot": 5470,
      "simultane": 5471,
      "displayed": 5472,
      "Horizontal": 5473,
      "choice": 5474,
      "statistics": 5475,
      "parliament": 5476,
      "planning": 5477,
      "urgency": 5478,
      "Consultative": 5479,
      "Border": 5480,
      "Software": 5481,
      "`%": 5482,
      "lit": 5483,
      "leading": 5484,
      "urban": 5485,
      "requiring": 5486,
      "extend": 5487,
      "integrity": 5488,
      "Month": 5489,
      "farming": 5490,
      "configure": 5491,
      "debate": 5492,
      "introduction": 5493,
      "adapt": 5494,
      "favou": 5495,
      "entirety": 5496,
      "execution": 5497,
      "transferred": 5498,
      "Freedom": 5499,
      "conflict": 5500,
      "NU": 5501,
      "ales": 5502,
      "alleg": 5503,
      "heard": 5504,
      "resign": 5505,
      "Reload": 5506,
      "formed": 5507,
      "Conditions": 5508,
      "serve": 5509,
      "Box": 5510,
      "cash": 5511,
      "Resource": 5512,
      "exercising": 5513,
      "Monetary": 5514,
      "organization": 5515,
      "omencl": 5516,
      "acceptance": 5517,
      "crash": 5518,
      "scheduled": 5519,
      "endeavour": 5520,
      "makes": 5521,
      "elimin": 5522,
      "Turkish": 5523,
      "IO": 5524,
      "MD": 5525,
      "_P": 5526,
      "tian": 5527,
      "tise": 5528,
      "ict": 5529,
      "Contracting": 5530,
      "moving": 5531,
      "123": 5532,
      "critical": 5533,
      "player": 5534,
      "ALL": 5535,
      "specialised": 5536,
      "difference": 5537,
      "Apply": 5538,
      "Maximum": 5539,
      "tests": 5540,
      "receiving": 5541,
      "military": 5542,
      "Username": 5543,
      "PGP": 5544,
      "Host": 5545,
      "Global": 5546,
      "Missing": 5547,
      "dpi": 5548,
      "ience": 5549,
      "input": 5550,
      "retari": 5551,
      "unk": 5552,
      "cell": 5553,
      "please": 5554,
      "weeks": 5555,
      "register": 5556,
      "ustries": 5557,
      "164": 5558,
      "protect": 5559,
      "Protocols": 5560,
      "charged": 5561,
      "risks": 5562,
      "store": 5563,
      "flu": 5564,
      "circul": 5565,
      "Modify": 5566,
      "substantial": 5567,
      "solidarity": 5568,
      "%)": 5569,
      "IRE": 5570,
      "WEU": 5571,
      "destination": 5572,
      "ascal": 5573,
      "propri": 5574,
      "ults": 5575,
      "idance": 5576,
      "idden": 5577,
      "rence": 5578,
      "previously": 5579,
      "Directives": 5580,
      "corrup": 5581,
      "allocate": 5582,
      "Interface": 5583,
      "iii": 5584,
      "generated": 5585,
      "advance": 5586,
      "electric": 5587,
      "Foundation": 5588,
      "envisaged": 5589,
      "Arabic": 5590,
      "cards": 5591,
      "rs": 5592,
      "tries": 5593,
      "sharing": 5594,
      "ago": 5595,
      "chair": 5596,
      "Style": 5597,
      "Input": 5598,
      "Parties": 5599,
      "kept": 5600,
      "139": 5601,
      "........................": 5602,
      "annually": 5603,
      "115": 5604,
      "pursue": 5605,
      "travel": 5606,
      "256": 5607,
      "governmental": 5608,
      "exclusion": 5609,
      "headings": 5610,
      "closure": 5611,
      "audits": 5612,
      "zzle": 5613,
      "Furthermore": 5614,
      "Second": 5615,
      "omenclature": 5616,
      "TE": 5617,
      "_C": 5618,
      "audio": 5619,
      "mag": 5620,
      "spo": 5621,
      "snow": 5622,
      "indirect": 5623,
      "sex": 5624,
      "Europol": 5625,
      "whom": 5626,
      "sian": 5627,
      "relate": 5628,
      "ARY": 5629,
      "doing": 5630,
      "168": 5631,
      "150": 5632,
      "bookmark": 5633,
      "360": 5634,
      "nutri": 5635,
      "EGNO": 5636,
      "Volume": 5637,
      "camera": 5638,
      "mical": 5639,
      "wn": 5640,
      "arbit": 5641,
      "apan": 5642,
      "verification": 5643,
      "lying": 5644,
      "auto": 5645,
      "Channel": 5646,
      "settle": 5647,
      "concerns": 5648,
      "allocations": 5649,
      "Final": 5650,
      "Internal": 5651,
      "attribu": 5652,
      "Legal": 5653,
      "Guaran": 5654,
      "\\\\\\\\{": 5655,
      "Rotate": 5656,
      "Agricultural": 5657,
      "synergies": 5658,
      "EGNOS": 5659,
      "SU": 5660,
      "Tra": 5661,
      "family": 5662,
      "instruc": 5663,
      "rees": 5664,
      "ites": 5665,
      "trash": 5666,
      "followed": 5667,
      "effected": 5668,
      "Subsection": 5669,
      "exceeds": 5670,
      "fulfils": 5671,
      "Meas": 5672,
      "Latvia": 5673,
      "DB": 5674,
      "Due": 5675,
      "ITH": 5676,
      "Japan": 5677,
      "Pack": 5678,
      "Ri": 5679,
      "cop": 5680,
      "crop": 5681,
      "reply": 5682,
      "oul": 5683,
      "matised": 5684,
      "urb": 5685,
      "former": 5686,
      "finished": 5687,
      "ipal": 5688,
      "Addi": 5689,
      "gross": 5690,
      "paying": 5691,
      "Automatically": 5692,
      "organised": 5693,
      "funded": 5694,
      "officers": 5695,
      "White": 5696,
      "Tools": 5697,
      "alternative": 5698,
      "exemption": 5699,
      "physical": 5700,
      "retariat": 5701,
      "Sound": 5702,
      "SHA": 5703,
      "comes": 5704,
      "ancy": 5705,
      "pread": 5706,
      "138": 5707,
      "114": 5708,
      "EAS": 5709,
      "compared": 5710,
      "recorded": 5711,
      "conducted": 5712,
      "planned": 5713,
      "disabled": 5714,
      "ensured": 5715,
      ".,": 5716,
      "110": 5717,
      "Del": 5718,
      "Gi": 5719,
      "Pres": 5720,
      "Pow": 5721,
      "Tod": 5722,
      "TED": 5723,
      "ares": 5724,
      "gges": 5725,
      "iny": 5726,
      "alter": 5727,
      "atal": 5728,
      "acks": 5729,
      "vere": 5730,
      "exchanges": 5731,
      "quid": 5732,
      "certifying": 5733,
      "Antar": 5734,
      "116": 5735,
      "167": 5736,
      "correction": 5737,
      "administr": 5738,
      "evaluations": 5739,
      "cycle": 5740,
      "areness": 5741,
      "insert": 5742,
      "penalty": 5743,
      "Usage": 5744,
      "smooth": 5745,
      "Cur": 5746,
      "Dialog": 5747,
      "Ms": 5748,
      "NS": 5749,
      "Pic": 5750,
      "Tel": 5751,
      "_Find": 5752,
      "dimension": 5753,
      "nail": 5754,
      "rejec": 5755,
      "Eurojust": 5756,
      "recent": 5757,
      "certificates": 5758,
      "geted": 5759,
      "olute": 5760,
      "confidential": 5761,
      "Align": 5762,
      "Structural": 5763,
      "Keep": 5764,
      "ubic": 5765,
      "named": 5766,
      "substituted": 5767,
      "untary": 5768,
      "Antarctic": 5769,
      "112": 5770,
      "CA": 5771,
      "Cu": 5772,
      "Dig": 5773,
      "MIN": 5774,
      "NESS": 5775,
      "dro": 5776,
      "var": 5777,
      "tial": 5778,
      "Undo": 5779,
      "trl": 5780,
      "Chair": 5781,
      "establishes": 5782,
      "Admin": 5783,
      "ieties": 5784,
      "filename": 5785,
      "183": 5786,
      "Opening": 5787,
      "phone": 5788,
      "Subscri": 5789,
      "sectoral": 5790,
      "managed": 5791,
      "plicate": 5792,
      "individuals": 5793,
      "approaches": 5794,
      "Everyone": 5795,
      "Simpl": 5796,
      "Estonia": 5797,
      "OPER": 5798,
      "consequences": 5799,
      "macro": 5800,
      "Two": 5801,
      "outermost": 5802,
      "friendly": 5803,
      "Mid": 5804,
      "Rap": 5805,
      "dy": 5806,
      "hard": 5807,
      "anian": 5808,
      "anium": 5809,
      "oral": 5810,
      "ark": 5811,
      "ford": 5812,
      "agenda": 5813,
      "deployment": 5814,
      "sions": 5815,
      "accur": 5816,
      "traditional": 5817,
      "plet": 5818,
      "decl": 5819,
      "industries": 5820,
      "102": 5821,
      "liable": 5822,
      "libr": 5823,
      "therewith": 5824,
      "correc": 5825,
      "contracting": 5826,
      "panel": 5827,
      "Recei": 5828,
      "combating": 5829,
      "improved": 5830,
      "models": 5831,
      "LANDS": 5832,
      "Symbol": 5833,
      "umbnail": 5834,
      "icode": 5835,
      "LDAP": 5836,
      "Guarantee": 5837,
      "Ctrl": 5838,
      "Frame": 5839,
      "PC": 5840,
      "Sam": 5841,
      "_Edit": 5842,
      "kde": 5843,
      "alls": 5844,
      "others": 5845,
      "answ": 5846,
      "hereby": 5847,
      "interoper": 5848,
      "overseas": 5849,
      "fron": 5850,
      "175": 5851,
      "contrary": 5852,
      "Notes": 5853,
      "backend": 5854,
      "element": 5855,
      "preparing": 5856,
      "cursor": 5857,
      "distributed": 5858,
      "installation": 5859,
      "Completed": 5860,
      "Danish": 5861,
      "Panel": 5862,
      "liberal": 5863,
      "\":": 5864,
      "Brow": 5865,
      "PR": 5866,
      "WHER": 5867,
      "cam": 5868,
      "catches": 5869,
      "remun": 5870,
      "chain": 5871,
      "park": 5872,
      "usage": 5873,
      "namely": 5874,
      "ships": 5875,
      "MEP": 5876,
      "putes": 5877,
      "factors": 5878,
      "Weather": 5879,
      "multiple": 5880,
      "EURES": 5881,
      "records": 5882,
      "classification": 5883,
      "awareness": 5884,
      "conclusions": 5885,
      "Layer": 5886,
      "hours": 5887,
      "Busy": 5888,
      "havior": 5889,
      "PORTUG": 5890,
      "Technical": 5891,
      "Equ": 5892,
      "cies": 5893,
      "mus": 5894,
      "software": 5895,
      "’)": 5896,
      "online": 5897,
      "release": 5898,
      "plus": 5899,
      "rapid": 5900,
      "nationality": 5901,
      "prescri": 5902,
      "objects": 5903,
      "designate": 5904,
      "Character": 5905,
      "societal": 5906,
      "fails": 5907,
      "Greenland": 5908,
      "circulation": 5909,
      "EEN": 5910,
      "dd": 5911,
      "video": 5912,
      "reject": 5913,
      "itment": 5914,
      "emon": 5915,
      "dern": 5916,
      "porte": 5917,
      "discharge": 5918,
      "117": 5919,
      "Remo": 5920,
      "committed": 5921,
      "Meeting": 5922,
      "burden": 5923,
      "biodiversity": 5924,
      "conventions": 5925,
      "withdrawal": 5926,
      "sensitive": 5927,
      "utility": 5928,
      "Checking": 5929,
      "119": 5930,
      "Centre": 5931,
      "Ign": 5932,
      "Job": 5933,
      "Prom": 5934,
      "Scal": 5935,
      "Sender": 5936,
      "_File": 5937,
      "gle": 5938,
      "horizon": 5939,
      "sol": 5940,
      "ican": 5941,
      "ases": 5942,
      "iles": 5943,
      "Stre": 5944,
      "raising": 5945,
      "206": 5946,
      "Unicode": 5947,
      "prived": 5948,
      "manage": 5949,
      "Adap": 5950,
      "Debug": 5951,
      "terminal": 5952,
      "located": 5953,
      "tilles": 5954,
      "Subversion": 5955,
      "ographic": 5956,
      "effectively": 5957,
      "burg": 5958,
      "Modified": 5959,
      "taxation": 5960,
      "POL": 5961,
      "patent": 5962,
      "entrepren": 5963,
      "hectares": 5964,
      "Restart": 5965,
      "Slovenia": 5966,
      "Irish": 5967,
      "parliamentary": 5968,
      "500": 5969,
      "GB": 5970,
      "KB": 5971,
      "Non": 5972,
      "Tor": 5973,
      "_List": 5974,
      "haz": 5975,
      "je": 5976,
      "extr": 5977,
      "directive": 5978,
      "veloper": 5979,
      "translation": 5980,
      "locally": 5981,
      "Comment": 5982,
      "indicate": 5983,
      "division": 5984,
      "damage": 5985,
      "symbol": 5986,
      "clearly": 5987,
      "permanently": 5988,
      "alcoholic": 5989,
      "flex": 5990,
      "Iceland": 5991,
      "avigation": 5992,
      "Long": 5993,
      "My": 5994,
      "Split": 5995,
      "ivers": 5996,
      "moun": 5997,
      "motor": 5998,
      "scho": 5999,
      "ley": 6000,
      "Arti": 6001,
      "parse": 6002,
      "series": 6003,
      "printer": 6004,
      "prepare": 6005,
      "Anti": 6006,
      "marked": 6007,
      "160": 6008,
      "Collec": 6009,
      "tender": 6010,
      "keyboard": 6011,
      "properly": 6012,
      "classified": 6013,
      "voluntary": 6014,
      "article": 6015,
      "THERLANDS": 6016,
      "consisting": 6017,
      "NETHERLANDS": 6018,
      "Ministers": 6019,
      "Antarctica": 6020,
      "school": 6021,
      "Destination": 6022,
      "Eas": 6023,
      "Water": 6024,
      "WITH": 6025,
      "cance": 6026,
      "rut": 6027,
      "usu": 6028,
      "inger": 6029,
      "209": 6030,
      "accred": 6031,
      "Index": 6032,
      "intends": 6033,
      "191": 6034,
      "notice": 6035,
      "128": 6036,
      "numbering": 6037,
      "corrective": 6038,
      "Alt": 6039,
      "deliber": 6040,
      "universal": 6041,
      "expert": 6042,
      "photos": 6043,
      "deposit": 6044,
      "remuneration": 6045,
      ".’.": 6046,
      "Areas": 6047,
      "CN": 6048,
      "East": 6049,
      "LU": 6050,
      "cancel": 6051,
      "fill": 6052,
      "fight": 6053,
      "gor": 6054,
      "vac": 6055,
      "thon": 6056,
      "islands": 6057,
      "beet": 6058,
      "Therefore": 6059,
      "rename": 6060,
      "Chat": 6061,
      "Antilles": 6062,
      "Adv": 6063,
      "ERMAN": 6064,
      "122": 6065,
      "conditional": 6066,
      "ANC": 6067,
      "specifications": 6068,
      "Aug": 6069,
      "Highlight": 6070,
      "1977": 6071,
      "hood": 6072,
      "missing": 6073,
      "fulfilment": 6074,
      "penses": 6075,
      "combined": 6076,
      "continued": 6077,
      "exclusively": 6078,
      "CEF": 6079,
      "caused": 6080,
      "compensation": 6081,
      "picture": 6082,
      "declarations": 6083,
      "Scheme": 6084,
      ".*": 6085,
      "Birth": 6086,
      "DG": 6087,
      "Fit": 6088,
      "Har": 6089,
      "Ko": 6090,
      "Qual": 6091,
      "Rus": 6092,
      "bs": 6093,
      "sess": 6094,
      "vul": 6095,
      "vable": 6096,
      "zer": 6097,
      "acid": 6098,
      "pel": 6099,
      "ogle": 6100,
      "2016": 6101,
      "forestry": 6102,
      "liquid": 6103,
      "regulatory": 6104,
      "pha": 6105,
      "highest": 6106,
      "Agreements": 6107,
      "disturb": 6108,
      "maintainer": 6109,
      "munity": 6110,
      "Valid": 6111,
      "science": 6112,
      "hearing": 6113,
      "letter": 6114,
      "angle": 6115,
      "wishes": 6116,
      "accompany": 6117,
      "democratic": 6118,
      "Written": 6119,
      "Redo": 6120,
      "articles": 6121,
      "ylum": 6122,
      "Take": 6123,
      "encryption": 6124,
      "chambers": 6125,
      "Simplified": 6126,
      "declare": 6127,
      "225": 6128,
      "Hand": 6129,
      "Icons": 6130,
      "OS": 6131,
      "utr": 6132,
      "oring": 6133,
      "conferences": 6134,
      "death": 6135,
      "deprived": 6136,
      "peace": 6137,
      "ownership": 6138,
      "assent": 6139,
      "izations": 6140,
      "itigation": 6141,
      "payable": 6142,
      "currencies": 6143,
      "Remember": 6144,
      "Trust": 6145,
      "researchers": 6146,
      "remaining": 6147,
      "collective": 6148,
      "POP": 6149,
      "starting": 6150,
      "intention": 6151,
      "deposited": 6152,
      "switch": 6153,
      "Initial": 6154,
      "texts": 6155,
      "(*.": 6156,
      "KIC": 6157,
      "[%": 6158,
      "done": 6159,
      "grade": 6160,
      "lighting": 6161,
      "pace": 6162,
      "rong": 6163,
      "sale": 6164,
      "van": 6165,
      "ula": 6166,
      "rable": 6167,
      "recru": 6168,
      "certification": 6169,
      "adopts": 6170,
      "sections": 6171,
      "Deleg": 6172,
      "objection": 6173,
      "Super": 6174,
      "Presidency": 6175,
      "aims": 6176,
      "founded": 6177,
      "Upd": 6178,
      "popup": 6179,
      "Organis": 6180,
      "sales": 6181,
      "Spell": 6182,
      "Layout": 6183,
      "doubt": 6184,
      "brew": 6185,
      "irregularities": 6186,
      "sized": 6187,
      "Changes": 6188,
      "Engine": 6189,
      "ascals": 6190,
      "horizontal": 6191,
      "ck": 6192,
      "drop": 6193,
      "few": 6194,
      "iCalendar": 6195,
      "ses": 6196,
      "zen": 6197,
      "inder": 6198,
      "adata": 6199,
      "exported": 6200,
      "uranium": 6201,
      "parameters": 6202,
      "abl": 6203,
      "comments": 6204,
      "Accoun": 6205,
      "lawy": 6206,
      "timely": 6207,
      "targeted": 6208,
      "1975": 6209,
      "facilitating": 6210,
      "features": 6211,
      "discriminatory": 6212,
      "coordinated": 6213,
      "convened": 6214,
      "abolish": 6215,
      "closer": 6216,
      "According": 6217,
      "Ignore": 6218,
      ";{": 6219,
      "FED": 6220,
      "HO": 6221,
      "How": 6222,
      "_Send": 6223,
      "hab": 6224,
      "tren": 6225,
      "ists": 6226,
      "heavy": 6227,
      "ulate": 6228,
      "quar": 6229,
      "lav": 6230,
      "possess": 6231,
      "strict": 6232,
      "scrut": 6233,
      "11a": 6234,
      "complied": 6235,
      "addressing": 6236,
      "299": 6237,
      "documentation": 6238,
      "Manage": 6239,
      "Lines": 6240,
      "revised": 6241,
      "combat": 6242,
      "creative": 6243,
      "incorpor": 6244,
      "coherence": 6245,
      "deadline": 6246,
      "Button": 6247,
      "plenary": 6248,
      "Bulgaria": 6249,
      "IRELAND": 6250,
      "instructions": 6251,
      "vulner": 6252,
      "Ak": 6253,
      "Bad": 6254,
      "Ca": 6255,
      "Dr": 6256,
      "band": 6257,
      "fat": 6258,
      "km": 6259,
      "radi": 6260,
      "ua": 6261,
      "teen": 6262,
      "190": 6263,
      "133": 6264,
      "defining": 6265,
      "addresses": 6266,
      "torrent": 6267,
      "UNIT": 6268,
      "Meth": 6269,
      "sheets": 6270,
      "anean": 6271,
      "aromatised": 6272,
      "attained": 6273,
      "investigation": 6274,
      "effort": 6275,
      "definitive": 6276,
      "Issued": 6277,
      "reimburse": 6278,
      "favourable": 6279,
      "OPERATION": 6280,
      "GERMAN": 6281,
      "Ki": 6282,
      "Mel": 6283,
      "OM": 6284,
      "grain": 6285,
      "ville": 6286,
      "iterr": 6287,
      "sugges": 6288,
      "adverse": 6289,
      "bert": 6290,
      "perature": 6291,
      "outcome": 6292,
      "decomm": 6293,
      "oney": 6294,
      "ERS": 6295,
      "Exp": 6296,
      "177": 6297,
      "255": 6298,
      "login": 6299,
      "benefiting": 6300,
      "feed": 6301,
      "Representatives": 6302,
      "immunity": 6303,
      "mixed": 6304,
      "transmitted": 6305,
      "Python": 6306,
      "DECLARATION": 6307,
      "bilateral": 6308,
      "GERMANY": 6309,
      "iterranean": 6310,
      ".)": 6311,
      ";}": 6312,
      "=\\\\\\\\{": 6313,
      "GL": 6314,
      "Pause": 6315,
      "Small": 6316,
      "distance": 6317,
      "ka": 6318,
      "py": 6319,
      "wallet": 6320,
      "asylum": 6321,
      "shell": 6322,
      "sten": 6323,
      "plates": 6324,
      "ellow": 6325,
      "Proxy": 6326,
      "ipot": 6327,
      "colors": 6328,
      "respected": 6329,
      "174": 6330,
      "179": 6331,
      "Hebrew": 6332,
      "spir": 6333,
      "COOPERATION": 6334,
      "factor": 6335,
      "1986": 6336,
      "pathy": 6337,
      "banknotes": 6338,
      "abolition": 6339,
      "mandate": 6340,
      "estimates": 6341,
      "figure": 6342,
      "ingredients": 6343,
      "availability": 6344,
      "construction": 6345,
      "broken": 6346,
      "Japanese": 6347,
      "August": 6348,
      "DS": 6349,
      "Elec": 6350,
      "SI": 6351,
      "Side": 6352,
      "uff": 6353,
      "ste": 6354,
      "stri": 6355,
      "atell": 6356,
      "advis": 6357,
      "Stud": 6358,
      "derived": 6359,
      "composed": 6360,
      "iamon": 6361,
      "recipients": 6362,
      "liaison": 6363,
      "overwrite": 6364,
      "THIS": 6365,
      "neither": 6366,
      "respecting": 6367,
      "pursuance": 6368,
      "domain": 6369,
      "excell": 6370,
      "modes": 6371,
      "Health": 6372,
      "accessible": 6373,
      "assessments": 6374,
      "Bookmarks": 6375,
      "testing": 6376,
      "complementarity": 6377,
      "safeguards": 6378,
      "multilateral": 6379,
      "ADO": 6380,
      "Fo": 6381,
      "Four": 6382,
      "Fog": 6383,
      "Kar": 6384,
      "Mi": 6385,
      "Press": 6386,
      "Plan": 6387,
      "Tom": 6388,
      "Vir": 6389,
      "ives": 6390,
      "pth": 6391,
      "ruling": 6392,
      "inside": 6393,
      "ali": 6394,
      "admission": 6395,
      "optim": 6396,
      "legiti": 6397,
      "interval": 6398,
      "modern": 6399,
      "invited": 6400,
      "directories": 6401,
      "Secretariat": 6402,
      "1981": 6403,
      "347": 6404,
      "displaying": 6405,
      "buttons": 6406,
      "profit": 6407,
      "roleum": 6408,
      "Sync": 6409,
      "ximation": 6410,
      "amba": 6411,
      "printed": 6412,
      "elfth": 6413,
      "aggreg": 6414,
      "Measures": 6415,
      "Today": 6416,
      "FEDERAL": 6417,
      "@}": 6418,
      "Cre": 6419,
      "Mart": 6420,
      "Nic": 6421,
      "None": 6422,
      "PK": 6423,
      "Row": 6424,
      "UK": 6425,
      "Win": 6426,
      "_en": 6427,
      "cm": 6428,
      "culture": 6429,
      "dle": 6430,
      "fiscal": 6431,
      "ym": 6432,
      "room": 6433,
      "ollar": 6434,
      "Ste": 6435,
      "207": 6436,
      "Uni": 6437,
      "diversity": 6438,
      "minim": 6439,
      "grams": 6440,
      "disputes": 6441,
      "viol": 6442,
      "incen": 6443,
      "okies": 6444,
      "173": 6445,
      "Filename": 6446,
      "Plas": 6447,
      "excluded": 6448,
      "PEG": 6449,
      "1979": 6450,
      "Launch": 6451,
      "corresponds": 6452,
      "Peri": 6453,
      "Encoding": 6454,
      "passeng": 6455,
      "Mediterranean": 6456,
      "warning": 6457,
      "matching": 6458,
      "CSV": 6459,
      "progressively": 6460,
      "}'?": 6461,
      "MARK": 6462,
      "discipline": 6463,
      "petition": 6464,
      "Appointment": 6465,
      "Organisation": 6466,
      "FI": 6467,
      "GR": 6468,
      "Mouse": 6469,
      "Some": 6470,
      "Upload": 6471,
      "YE": 6472,
      "_Folder": 6473,
      "sn": 6474,
      "alse": 6475,
      "rog": 6476,
      "olive": 6477,
      "ott": 6478,
      "ira": 6479,
      "ams": 6480,
      "measured": 6481,
      "Thunder": 6482,
      "qualifications": 6483,
      "director": 6484,
      "confer": 6485,
      "foods": 6486,
      "phase": 6487,
      "identity": 6488,
      "relationship": 6489,
      "shows": 6490,
      "Empathy": 6491,
      "Heads": 6492,
      "taxes": 6493,
      "complementary": 6494,
      "declares": 6495,
      "Georg": 6496,
      "Staff": 6497,
      "compensatory": 6498,
      "chemical": 6499,
      "hydro": 6500,
      "CFP": 6501,
      "pollu": 6502,
      "Quality": 6503,
      "UNITED": 6504,
      "ipotenti": 6505,
      "Bottom": 6506,
      "Sal": 6507,
      "past": 6508,
      "lean": 6509,
      "bloc": 6510,
      "Re_": 6511,
      "Inline": 6512,
      "relig": 6513,
      "124": 6514,
      "lost": 6515,
      "Depart": 6516,
      "161": 6517,
      "170": 6518,
      "1307": 6519,
      "recording": 6520,
      "structures": 6521,
      "attainment": 6522,
      "icons": 6523,
      "Media": 6524,
      "Statis": 6525,
      "Write": 6526,
      "comprise": 6527,
      "Croatia": 6528,
      "alleged": 6529,
      "fronti": 6530,
      "POLIC": 6531,
      "Accounts": 6532,
      "600": 6533,
      "Ben": 6534,
      "EF": 6535,
      "Pay": 6536,
      "West": 6537,
      "bility": 6538,
      "itions": 6539,
      "nan": 6540,
      "pilot": 6541,
      "vCard": 6542,
      "incompatible": 6543,
      "took": 6544,
      "detection": 6545,
      "ceased": 6546,
      "ider": 6547,
      "ourse": 6548,
      "occurren": 6549,
      "ishment": 6550,
      "submissions": 6551,
      "automatic": 6552,
      "police": 6553,
      "necessarily": 6554,
      "131": 6555,
      "INT": 6556,
      "timetable": 6557,
      "142": 6558,
      "149": 6559,
      "230": 6560,
      "Filters": 6561,
      "Resize": 6562,
      "acquired": 6563,
      "Sched": 6564,
      "structured": 6565,
      "Website": 6566,
      "letters": 6567,
      "herit": 6568,
      "STAT": 6569,
      "Fullscreen": 6570,
      "Monitoring": 6571,
      "Cr": 6572,
      "Dem": 6573,
      "Pat": 6574,
      "Sn": 6575,
      "cache": 6576,
      "dates": 6577,
      "firms": 6578,
      "wik": 6579,
      "allery": 6580,
      "riev": 6581,
      "chy": 6582,
      "compressed": 6583,
      "coast": 6584,
      "elcome": 6585,
      "puts": 6586,
      "worked": 6587,
      "workshop": 6588,
      "marily": 6589,
      "legally": 6590,
      "authorized": 6591,
      "approve": 6592,
      "instituted": 6593,
      "Exten": 6594,
      "158": 6595,
      "147": 6596,
      "IST": 6597,
      "234": 6598,
      "Reminder": 6599,
      "unanimous": 6600,
      "ITAL": 6601,
      "Copying": 6602,
      "gedit": 6603,
      "memos": 6604,
      "appointments": 6605,
      "commands": 6606,
      "sufficiently": 6607,
      "candidates": 6608,
      "Lower": 6609,
      "detected": 6610,
      "retire": 6611,
      "Additional": 6612,
      "Power": 6613,
      "library": 6614,
      "Advanced": 6615,
      "ADOP": 6616,
      "PKCS": 6617,
      "(‘": 6618,
      "220": 6619,
      "Cop": 6620,
      "Foc": 6621,
      "Pla": 6622,
      "R_": 6623,
      "cuts": 6624,
      "cubic": 6625,
      "void": 6626,
      "repair": 6627,
      "itar": 6628,
      "prob": 6629,
      "dered": 6630,
      "peat": 6631,
      "channel": 6632,
      "primary": 6633,
      "184": 6634,
      "layout": 6635,
      "151": 6636,
      "entering": 6637,
      "factory": 6638,
      "engage": 6639,
      "indications": 6640,
      "startup": 6641,
      "Transport": 6642,
      "HAV": 6643,
      "HTTP": 6644,
      "................................................................................................": 6645,
      "absolute": 6646,
      "concentration": 6647,
      "partnerships": 6648,
      "petroleum": 6649,
      "QUEEN": 6650,
      "orientation": 6651,
      "')": 6652,
      "CV": 6653,
      "EIB": 6654,
      "Face": 6655,
      "Pi": 6656,
      "ls": 6657,
      "late": 6658,
      "llec": 6659,
      "zilla": 6660,
      "relative": 6661,
      "ering": 6662,
      "enters": 6663,
      "expenses": 6664,
      "importer": 6665,
      "query": 6666,
      "pers": 6667,
      "ECU": 6668,
      "asses": 6669,
      "membership": 6670,
      "143": 6671,
      "Tran": 6672,
      "Disk": 6673,
      "Prepar": 6674,
      "integral": 6675,
      "1306": 6676,
      "statements": 6677,
      "returned": 6678,
      "balanced": 6679,
      "sessions": 6680,
      "introducing": 6681,
      "sorily": 6682,
      "IBM": 6683,
      "urgent": 6684,
      "involvement": 6685,
      "AF": 6686,
      "Clo": 6687,
      "Dou": 6688,
      "Nep": 6689,
      "Tog": 6690,
      "UTF": 6691,
      "bill": 6692,
      "enough": 6693,
      "always": 6694,
      "ications": 6695,
      "suitable": 6696,
      "apers": 6697,
      "explain": 6698,
      "137": 6699,
      "izard": 6700,
      "never": 6701,
      "neutr": 6702,
      "thereafter": 6703,
      "capabilities": 6704,
      "confirm": 6705,
      "rightness": 6706,
      "Contin": 6707,
      "Services": 6708,
      "Assistance": 6709,
      "RAM": 6710,
      "fullscreen": 6711,
      "raints": 6712,
      "headers": 6713,
      "IPA": 6714,
      "encouraging": 6715,
      "Duchy": 6716,
      "alternate": 6717,
      "estimated": 6718,
      "inspection": 6719,
      "Integr": 6720,
      "ighbourhood": 6721,
      "pixels": 6722,
      "Rapporte": 6723,
      "ipotentiaries": 6724,
      "GF": 6725,
      "GU": 6726,
      "P_": 6727,
      "Pur": 6728,
      "Wi": 6729,
      "_Use": 6730,
      "brow": 6731,
      "gative": 6732,
      "lt": 6733,
      "vic": 6734,
      "assu": 6735,
      "actually": 6736,
      "meets": 6737,
      "ada": 6738,
      "clause": 6739,
      "authorization": 6740,
      "Extract": 6741,
      "152": 6742,
      "153": 6743,
      "146": 6744,
      "wording": 6745,
      "participant": 6746,
      "COM": 6747,
      "budsmen": 6748,
      "Ques": 6749,
      "compound": 6750,
      "growing": 6751,
      "revoked": 6752,
      "combination": 6753,
      "Priority": 6754,
      "Items": 6755,
      "degree": 6756,
      "ADOPTED": 6757,
      "llectual": 6758,
      "400": 6759,
      "720": 6760,
      "Bit": 6761,
      "Nam": 6762,
      "Que": 6763,
      "Sor": 6764,
      "TLS": 6765,
      "_As": 6766,
      "_Previous": 6767,
      "_Windows": 6768,
      "ga": 6769,
      "mut": 6770,
      "pas": 6771,
      "wines": 6772,
      "yles": 6773,
      "alarms": 6774,
      "debug": 6775,
      "restore": 6776,
      "imbalances": 6777,
      "Reference": 6778,
      "clock": 6779,
      "amp": 6780,
      "amic": 6781,
      "recently": 6782,
      "umer": 6783,
      "launch": 6784,
      "192": 6785,
      "iph": 6786,
      "weighted": 6787,
      "165": 6788,
      "232": 6789,
      "1990": 6790,
      "228": 6791,
      "sitting": 6792,
      "changing": 6793,
      "Interinstitutional": 6794,
      "1985": 6795,
      "adapted": 6796,
      "compulsorily": 6797,
      "described": 6798,
      "protocols": 6799,
      "incorrect": 6800,
      "threats": 6801,
      "Basic": 6802,
      "iversary": 6803,
      "\"?": 6804,
      "113": 6805,
      "218": 6806,
      "CM": 6807,
      "Draft": 6808,
      "Gen": 6809,
      "Graph": 6810,
      "GOV": 6811,
      "LO": 6812,
      "Nick": 6813,
      "PN": 6814,
      "Sem": 6815,
      "Scan": 6816,
      "UP": 6817,
      "ael": 6818,
      "hide": 6819,
      "rant": 6820,
      "rice": 6821,
      "sil": 6822,
      "zones": 6823,
      "too": 6824,
      "shares": 6825,
      "ston": 6826,
      "ithm": 6827,
      "execute": 6828,
      "tatis": 6829,
      "203": 6830,
      "occas": 6831,
      "refund": 6832,
      "supplies": 6833,
      "utch": 6834,
      "187": 6835,
      "thereon": 6836,
      "characters": 6837,
      "Contents": 6838,
      "ICT": 6839,
      "recommended": 6840,
      "Confirm": 6841,
      "differences": 6842,
      "Moving": 6843,
      "Points": 6844,
      "completely": 6845,
      "failing": 6846,
      "Keyboard": 6847,
      "prohibition": 6848,
      "Target": 6849,
      "positive": 6850,
      "Territ": 6851,
      "SPEC": 6852,
      "Organizer": 6853,
      "Creating": 6854,
      "Offline": 6855,
      "reinforce": 6856,
      "lapse": 6857,
      "Baltic": 6858,
      "WHEREAS": 6859,
      "scrutiny": 6860,
      "223": 6861,
      "AIN": 6862,
      "Dav": 6863,
      "FTP": 6864,
      "Ra": 6865,
      "gency": 6866,
      "grid": 6867,
      "bearing": 6868,
      "unable": 6869,
      "poser": 6870,
      "blishing": 6871,
      "Chance": 6872,
      "authorising": 6873,
      "Acts": 6874,
      "adding": 6875,
      "INS": 6876,
      "144": 6877,
      "233": 6878,
      "279": 6879,
      "accessibility": 6880,
      "equity": 6881,
      "Applications": 6882,
      "Mailbox": 6883,
      "revoke": 6884,
      "Headers": 6885,
      "Primary": 6886,
      "communications": 6887,
      "COMMON": 6888,
      "Encrypt": 6889,
      "Romania": 6890,
      "Languages": 6891,
      "Skip": 6892,
      "fifths": 6893,
      "relief": 6894,
      "REGUL": 6895,
      "PROTOCOLS": 6896,
      "interoperability": 6897,
      "deliberations": 6898,
      "Martin": 6899,
      "rieving": 6900,
      "HAVING": 6901,
      "Dom": 6902,
      "Dutch": 6903,
      "Ele": 6904,
      "Ha": 6905,
      "Mich": 6906,
      "Now": 6907,
      "Pref": 6908,
      "mp": 6909,
      "none": 6910,
      "insurance": 6911,
      "ala": 6912,
      "atur": 6913,
      "acing": 6914,
      "plants": 6915,
      "kets": 6916,
      "Conciliation": 6917,
      "margin": 6918,
      "interrup": 6919,
      "notifications": 6920,
      "approximation": 6921,
      "Developer": 6922,
      "overe": 6923,
      "invent": 6924,
      "176": 6925,
      "retrie": 6926,
      "demographic": 6927,
      "1982": 6928,
      "findings": 6929,
      "Space": 6930,
      "flat": 6931,
      "tability": 6932,
      "Frank": 6933,
      "agrees": 6934,
      "subsequently": 6935,
      "disposing": 6936,
      "Multiple": 6937,
      "Establ": 6938,
      "ideshow": 6939,
      "remedy": 6940,
      "Street": 6941,
      "accompanying": 6942,
      "iamonds": 6943,
      "Statistics": 6944,
      "GOVERN": 6945,
      "occasion": 6946,
      "AM": 6947,
      "Che": 6948,
      "Function": 6949,
      "Gray": 6950,
      "Her": 6951,
      "Kol": 6952,
      "KMail": 6953,
      "Random": 6954,
      "junk": 6955,
      "rich": 6956,
      "ug": 6957,
      "info": 6958,
      "ilt": 6959,
      "illed": 6960,
      "agents": 6961,
      "terror": 6962,
      "ury": 6963,
      "rather": 6964,
      "Unread": 6965,
      "ours": 6966,
      "ureau": 6967,
      "permissions": 6968,
      "Convert": 6969,
      "Chamber": 6970,
      "intermedi": 6971,
      "disadvant": 6972,
      "publications": 6973,
      "172": 6974,
      "Annual": 6975,
      "tray": 6976,
      "capable": 6977,
      "229": 6978,
      "monthly": 6979,
      "263": 6980,
      "limitations": 6981,
      "acquire": 6982,
      "drive": 6983,
      "attachments": 6984,
      "clicking": 6985,
      "patents": 6986,
      "Belgian": 6987,
      "Termin": 6988,
      "printing": 6989,
      "Activate": 6990,
      "Budget": 6991,
      "constraints": 6992,
      "eliminate": 6993,
      "Adaptation": 6994,
      "DEN": 6995,
      "Hal": 6996,
      "Pop": 6997,
      "Saf": 6998,
      "Wall": 6999,
      "WAR": 7000,
      "_Mac": 7001,
      "fram": 7002,
      "nic": 7003,
      "win": 7004,
      "yield": 7005,
      "za": 7006,
      "arise": 7007,
      "mentation": 7008,
      "stated": 7009,
      "cease": 7010,
      "redistribu": 7011,
      "portion": 7012,
      "ardous": 7013,
      "certified": 7014,
      "extra": 7015,
      "Declar": 7016,
      "draf": 7017,
      "protecting": 7018,
      "Prin": 7019,
      "movements": 7020,
      "holdings": 7021,
      "widget": 7022,
      "MENTS": 7023,
      "Undertakings": 7024,
      "Complete": 7025,
      "simplification": 7026,
      "demonstration": 7027,
      "satisfy": 7028,
      "............................": 7029,
      "215": 7030,
      "A1": 7031,
      "CPU": 7032,
      "FER": 7033,
      "SOC": 7034,
      "_k": 7035,
      "bin": 7036,
      "cu": 7037,
      "eur": 7038,
      "fro": 7039,
      "fast": 7040,
      "oples": 7041,
      "pg": 7042,
      "pting": 7043,
      "rd": 7044,
      "satell": 7045,
      "ye": 7046,
      "zero": 7047,
      "inland": 7048,
      "forth": 7049,
      "apters": 7050,
      "resol": 7051,
      "tail": 7052,
      "ette": 7053,
      "refrain": 7054,
      "primarily": 7055,
      "stipul": 7056,
      "secret": 7057,
      "relates": 7058,
      "Acting": 7059,
      "anning": 7060,
      "intellectual": 7061,
      "Exit": 7062,
      "ROM": 7063,
      "Design": 7064,
      "URI": 7065,
      "Political": 7066,
      "reductions": 7067,
      "impacts": 7068,
      "Backup": 7069,
      "calculating": 7070,
      "axes": 7071,
      "MBER": 7072,
      "Speed": 7073,
      "investigations": 7074,
      "Latin": 7075,
      "TeX": 7076,
      "_mport": 7077,
      "purchase": 7078,
      "inventory": 7079,
      "Bi": 7080,
      "Camera": 7081,
      "Ear": 7082,
      "Nice": 7083,
      "Os": 7084,
      "Tray": 7085,
      "Uk": 7086,
      "Wor": 7087,
      "_w": 7088,
      "gon": 7089,
      "papers": 7090,
      "theless": 7091,
      "replies": 7092,
      "icated": 7093,
      "omet": 7094,
      "peoples": 7095,
      "owing": 7096,
      "optional": 7097,
      "regime": 7098,
      "authorize": 7099,
      "Shift": 7100,
      "186": 7101,
      "163": 7102,
      "169": 7103,
      "residing": 7104,
      "235": 7105,
      "240": 7106,
      "initiated": 7107,
      "networking": 7108,
      "Plen": 7109,
      "Max": 7110,
      "1989": 7111,
      "Google": 7112,
      "Outlook": 7113,
      "negotiated": 7114,
      "advanced": 7115,
      "organise": 7116,
      "checking": 7117,
      "coordinating": 7118,
      "manufacturers": 7119,
      "successful": 7120,
      "coherent": 7121,
      "Directorate": 7122,
      "platforms": 7123,
      "nutrition": 7124,
      "Package": 7125,
      "PORTUGAL": 7126,
      "hazardous": 7127,
      ".]": 7128,
      "1f": 7129,
      "KE": 7130,
      "Pages": 7131,
      "Tree": 7132,
      "_Search": 7133,
      "_Close": 7134,
      "cc": 7135,
      "dir": 7136,
      "frequ": 7137,
      "rary": 7138,
      "enlarge": 7139,
      "round": 7140,
      "tably": 7141,
      "St_": 7142,
      "ided": 7143,
      "Incl": 7144,
      "ECR": 7145,
      "obst": 7146,
      "whereby": 7147,
      "181": 7148,
      "personnel": 7149,
      "156": 7150,
      "Importing": 7151,
      "141": 7152,
      "signatory": 7153,
      "writable": 7154,
      "practical": 7155,
      "affects": 7156,
      "depending": 7157,
      "crossing": 7158,
      "becom": 7159,
      "preventing": 7160,
      "closely": 7161,
      "specifying": 7162,
      "Flip": 7163,
      "Synchron": 7164,
      "John": 7165,
      "eases": 7166,
      "drag": 7167,
      "answer": 7168,
      "legitimate": 7169,
      "Declarations": 7170,
      "09": 7171,
      "ACONSTITUTION": 7172,
      "CR": 7173,
      "Cross": 7174,
      "FUN": 7175,
      "Finger": 7176,
      "Gra": 7177,
      "Grid": 7178,
      "Lib": 7179,
      "Mob": 7180,
      "VAT": 7181,
      "ball": 7182,
      "dign": 7183,
      "gra": 7184,
      "nation": 7185,
      "pred": 7186,
      "tree": 7187,
      "reported": 7188,
      "andis": 7189,
      "sts": 7190,
      "clar": 7191,
      "servers": 7192,
      "actor": 7193,
      "Thai": 7194,
      "liability": 7195,
      "decisionmaking": 7196,
      "limate": 7197,
      "1991": 7198,
      "Computer": 7199,
      "representation": 7200,
      "Heavy": 7201,
      "integrating": 7202,
      "expand": 7203,
      "EMFF": 7204,
      "mutatis": 7205,
      "analy": 7206,
      "FOREUROPE": 7207,
      "ridge": 7208,
      "installations": 7209,
      "clean": 7210,
      "abolished": 7211,
      "wait": 7212,
      "Following": 7213,
      "alignment": 7214,
      "rejected": 7215,
      "prescribed": 7216,
      "=\\\\\\\\{@}": 7217,
      "Thunderstor": 7218,
      "ITALIAN": 7219,
      "billion": 7220,
      "mutandis": 7221,
      "ACONSTITUTIONFOREUROPE": 7222,
      "3b": 7223,
      "Bra": 7224,
      "Climate": 7225,
      "GA": 7226,
      "JPEG": 7227,
      "Lar": 7228,
      "Land": 7229,
      "Let": 7230,
      "Mol": 7231,
      "Manu": 7232,
      "Rome": 7233,
      "RSA": 7234,
      "Sus": 7235,
      "Upon": 7236,
      "ama": 7237,
      "diamonds": 7238,
      "facts": 7239,
      "gend": 7240,
      "ky": 7241,
      "ned": 7242,
      "ena": 7243,
      "asters": 7244,
      "omuk": 7245,
      "proof": 7246,
      "unched": 7247,
      "ulations": 7248,
      "maxim": 7249,
      "abul": 7250,
      "Conver": 7251,
      "Chris": 7252,
      "diseases": 7253,
      "Advisory": 7254,
      "negative": 7255,
      "layer": 7256,
      "lined": 7257,
      "virtu": 7258,
      "Traditional": 7259,
      "designating": 7260,
      "complex": 7261,
      "improvements": 7262,
      "reserved": 7263,
      "collected": 7264,
      "Perman": 7265,
      "observed": 7266,
      "bringing": 7267,
      "Increase": 7268,
      "Retrieving": 7269,
      "gorithm": 7270,
      "pollution": 7271,
      "Department": 7272,
      "Nepomuk": 7273,
      "dignity": 7274,
      "Bri": 7275,
      "Cell": 7276,
      "ITIES": 7277,
      "Solid": 7278,
      "dried": 7279,
      "wrong": 7280,
      "ino": 7281,
      "often": 7282,
      "unemployment": 7283,
      "conference": 7284,
      "dev": 7285,
      "plom": 7286,
      "chapter": 7287,
      "ident": 7288,
      "ifies": 7289,
      "blue": 7290,
      "covers": 7291,
      "notably": 7292,
      "viation": 7293,
      "TIVE": 7294,
      "ailing": 7295,
      "231": 7296,
      "corrid": 7297,
      "Clipboard": 7298,
      "COSME": 7299,
      "ifying": 7300,
      "election": 7301,
      "reviewed": 7302,
      "drivers": 7303,
      "USA": 7304,
      "socio": 7305,
      "EGF": 7306,
      "Moreover": 7307,
      "Starting": 7308,
      "A_dd": 7309,
      "OUT": 7310,
      "admissibility": 7311,
      "Waiting": 7312,
      "Digital": 7313,
      "corrections": 7314,
      "reimbursement": 7315,
      "REGULATION": 7316,
      "obstac": 7317,
      "##": 7318,
      "BE": 7319,
      "Burn": 7320,
      "Block": 7321,
      "Cance": 7322,
      "Kal": 7323,
      "T_": 7324,
      "Trade": 7325,
      "Ur": 7326,
      "hom": 7327,
      "ios": 7328,
      "oft": 7329,
      "tically": 7330,
      "ody": 7331,
      "Notification": 7332,
      "Parliamentary": 7333,
      "Projects": 7334,
      "ameter": 7335,
      "soil": 7336,
      "llation": 7337,
      "Dev": 7338,
      "145": 7339,
      "309": 7340,
      "Coordin": 7341,
      "spaces": 7342,
      "Content": 7343,
      "performing": 7344,
      "freight": 7345,
      "1973": 7346,
      "variable": 7347,
      "expire": 7348,
      "organic": 7349,
      "Merge": 7350,
      "Join": 7351,
      "Behavior": 7352,
      "schedule": 7353,
      "elfare": 7354,
      "intervene": 7355,
      "emerging": 7356,
      "emergency": 7357,
      "radio": 7358,
      "Browse": 7359,
      "KICs": 7360,
      "lawyers": 7361,
      "('": 7362,
      "210": 7363,
      "BY": 7364,
      "BEL": 7365,
      "Bureau": 7366,
      "CP": 7367,
      "Grow": 7368,
      "Option": 7369,
      "So": 7370,
      "_Next": 7371,
      "city": 7372,
      "gan": 7373,
      "tro": 7374,
      "rele": 7375,
      "ester": 7376,
      "iso": 7377,
      "bear": 7378,
      "stan": 7379,
      "severe": 7380,
      "render": 7381,
      "launched": 7382,
      "secrecy": 7383,
      "disaster": 7384,
      "collab": 7385,
      "155": 7386,
      "resident": 7387,
      "relevance": 7388,
      "278": 7389,
      "260": 7390,
      "ITNESS": 7391,
      "freezing": 7392,
      "CONC": 7393,
      "1970": 7394,
      "Look": 7395,
      "introduce": 7396,
      "Connect": 7397,
      "Objec": 7398,
      "solely": 7399,
      "Tags": 7400,
      "Taking": 7401,
      "greenhouse": 7402,
      "Warning": 7403,
      "occupation": 7404,
      "NUTS": 7405,
      "oultry": 7406,
      "administrations": 7407,
      "Picture": 7408,
      "Birthday": 7409,
      "Toggle": 7410,
      "virtue": 7411,
      "213": 7412,
      "Hy": 7413,
      "Score": 7414,
      "Sovere": 7415,
      "];": 7416,
      "_Move": 7417,
      "bus": 7418,
      "i_": 7419,
      "iers": 7420,
      "las": 7421,
      "ni": 7422,
      "sport": 7423,
      "split": 7424,
      "sought": 7425,
      "upload": 7426,
      "inar": 7427,
      "indirectly": 7428,
      "orage": 7429,
      "alk": 7430,
      "leave": 7431,
      "rotation": 7432,
      "Commit": 7433,
      "quick": 7434,
      "Revision": 7435,
      "refined": 7436,
      "understanding": 7437,
      "producing": 7438,
      "aily": 7439,
      "ponent": 7440,
      "foreseen": 7441,
      "INTER": 7442,
      "respects": 7443,
      "confir": 7444,
      "interested": 7445,
      "visit": 7446,
      "visual": 7447,
      "groundwater": 7448,
      "Minimum": 7449,
      "aiming": 7450,
      "1972": 7451,
      "Neighbourhood": 7452,
      "recognises": 7453,
      "stood": 7454,
      "tabs": 7455,
      "scienti": 7456,
      "generation": 7457,
      "trig": 7458,
      "supplementary": 7459,
      "Variable": 7460,
      "reflect": 7461,
      "Eastern": 7462,
      "Sovereign": 7463,
      "07": 7464,
      "Gn": 7465,
      "Lim": 7466,
      "PNG": 7467,
      "Room": 7468,
      "Sto": 7469,
      "Yellow": 7470,
      "ko": 7471,
      "lot": 7472,
      "mitigation": 7473,
      "sanc": 7474,
      "sending": 7475,
      "tape": 7476,
      "ert": 7477,
      "ening": 7478,
      "ommun": 7479,
      "abor": 7480,
      "usal": 7481,
      "Repeal": 7482,
      "diplom": 7483,
      "196": 7484,
      "disasters": 7485,
      "movable": 7486,
      "neighbour": 7487,
      "filled": 7488,
      "fax": 7489,
      "TIONS": 7490,
      "represents": 7491,
      "submitting": 7492,
      "Searching": 7493,
      "Recommend": 7494,
      "acceler": 7495,
      "limitation": 7496,
      "Mailing": 7497,
      "statusbar": 7498,
      "Working": 7499,
      "acquisition": 7500,
      "compatibility": 7501,
      "biological": 7502,
      "significantly": 7503,
      "dealt": 7504,
      "exempt": 7505,
      "FINAL": 7506,
      "Shell": 7507,
      "inspections": 7508,
      "Berlin": 7509,
      "PROTOCOL": 7510,
      "MD5": 7511,
      "Updating": 7512,
      "itarian": 7513,
      "Rapporteurs": 7514,
      "enlargement": 7515,
      "Az": 7516,
      "GE": 7517,
      "Lu": 7518,
      "Qt": 7519,
      "SD": 7520,
      "Welcome": 7521,
      "_Print": 7522,
      "bottom": 7523,
      "mi": 7524,
      "pp": 7525,
      "uge": 7526,
      "thias": 7527,
      "replaces": 7528,
      "edia": 7529,
      "icin": 7530,
      "black": 7531,
      "istor": 7532,
      "Contain": 7533,
      "intend": 7534,
      "Cho": 7535,
      "transaction": 7536,
      "guidance": 7537,
      "bovine": 7538,
      "178": 7539,
      "twelfth": 7540,
      "250": 7541,
      "258": 7542,
      "ixed": 7543,
      "evolution": 7544,
      "gives": 7545,
      "mailbox": 7546,
      "vessel": 7547,
      "designations": 7548,
      "communities": 7549,
      "Maj": 7550,
      "Polish": 7551,
      "1988": 7552,
      "ensity": 7553,
      "munities": 7554,
      "educational": 7555,
      "Order": 7556,
      "Feed": 7557,
      "generate": 7558,
      "organizations": 7559,
      "difficult": 7560,
      "Widget": 7561,
      "easily": 7562,
      "comparable": 7563,
      "simultaneously": 7564,
      "Collection": 7565,
      "strictly": 7566,
      "03": 7567,
      "219": 7568,
      "Fav": 7569,
      "Sent": 7570,
      "Ve": 7571,
      "WE": 7572,
      "nings": 7573,
      "oils": 7574,
      "welfare": 7575,
      "xt": 7576,
      "antive": 7577,
      "album": 7578,
      "town": 7579,
      "forces": 7580,
      "block": 7581,
      "cores": 7582,
      "refers": 7583,
      "recourse": 7584,
      "Parts": 7585,
      "requis": 7586,
      "grass": 7587,
      "specifically": 7588,
      "166": 7589,
      "lays": 7590,
      "True": 7591,
      "evaluate": 7592,
      "attem": 7593,
      "assessing": 7594,
      "TAB": 7595,
      "substantive": 7596,
      "Sci": 7597,
      "manually": 7598,
      "Transfer": 7599,
      "much": 7600,
      "negotiate": 7601,
      "keeping": 7602,
      "broadband": 7603,
      "identifying": 7604,
      "detect": 7605,
      "Private": 7606,
      "RECALL": 7607,
      "corruption": 7608,
      "Russian": 7609,
      "Plasma": 7610,
      "frozen": 7611,
      "Plenipotentiaries": 7612,
      "Bé": 7613,
      "Break": 7614,
      "DIA": 7615,
      "Hard": 7616,
      "Never": 7617,
      "Pix": 7618,
      "Scope": 7619,
      "Smart": 7620,
      "bad": 7621,
      "ij": 7622,
      "mount": 7623,
      "tack": 7624,
      "wan": 7625,
      "zier": 7626,
      "though": 7627,
      "influ": 7628,
      "tit": 7629,
      "titled": 7630,
      "ened": 7631,
      "shot": 7632,
      "ilst": 7633,
      "aps": 7634,
      "lave": 7635,
      "subheading": 7636,
      "possibilities": 7637,
      "minute": 7638,
      "supplied": 7639,
      "goals": 7640,
      "complies": 7641,
      "levies": 7642,
      "280": 7643,
      "ATE": 7644,
      "freely": 7645,
      "Mozilla": 7646,
      "seeking": 7647,
      "multimodal": 7648,
      "Playlist": 7649,
      "ski": 7650,
      "Attribu": 7651,
      "Blank": 7652,
      "Workers": 7653,
      "Strategic": 7654,
      "OLAF": 7655,
      "Romanian": 7656,
      "formalities": 7657,
      "ingredient": 7658,
      "htm": 7659,
      "distortion": 7660,
      "electricity": 7661,
      "varieties": 7662,
      "jeop": 7663,
      "Periods": 7664,
      "YEI": 7665,
      "POLICY": 7666,
      "Plain": 7667,
      "CONCERN": 7668,
      "%,": 7669,
      "++": 7670,
      "Dark": 7671,
      "Family": 7672,
      "GIF": 7673,
      "KT": 7674,
      "MH": 7675,
      "ba": 7676,
      "cs": 7677,
      "repayment": 7678,
      "rok": 7679,
      "ombudsman": 7680,
      "ili": 7681,
      "Their": 7682,
      "raise": 7683,
      "ratified": 7684,
      "teach": 7685,
      "odes": 7686,
      "ucose": 7687,
      "Paris": 7688,
      "1957": 7689,
      "stimul": 7690,
      "productive": 7691,
      "Anim": 7692,
      "activate": 7693,
      "activated": 7694,
      "Form": 7695,
      "News": 7696,
      "techni": 7697,
      "foot": 7698,
      "Resolution": 7699,
      "Once": 7700,
      "concluding": 7701,
      "Manual": 7702,
      "1976": 7703,
      "offers": 7704,
      "temperature": 7705,
      "elex": 7706,
      "wider": 7707,
      "Specify": 7708,
      "Plugins": 7709,
      "Swedish": 7710,
      "closing": 7711,
      "OCT": 7712,
      "Indentation": 7713,
      "arguments": 7714,
      "arrive": 7715,
      "vulnerable": 7716,
      "STATES": 7717,
      "Domain": 7718,
      "Terminal": 7719,
      "CONCERNING": 7720,
      "Cache": 7721,
      "Kore": 7722,
      "Met": 7723,
      "_Tab": 7724,
      "hous": 7725,
      "iable": 7726,
      "rac": 7727,
      "swe": 7728,
      "tan": 7729,
      "ongoing": 7730,
      "iling": 7731,
      "agent": 7732,
      "sell": 7733,
      "204": 7734,
      "ifier": 7735,
      "blin": 7736,
      "posing": 7737,
      "affairs": 7738,
      "195": 7739,
      "buy": 7740,
      "entif": 7741,
      "TIFF": 7742,
      "scape": 7743,
      "135": 7744,
      "qualities": 7745,
      "developers": 7746,
      "institute": 7747,
      "organs": 7748,
      "carc": 7749,
      "Diagram": 7750,
      "playing": 7751,
      "226": 7752,
      "visa": 7753,
      "sphere": 7754,
      "referential": 7755,
      "Most": 7756,
      "Important": 7757,
      "harm": 7758,
      "passwords": 7759,
      "miles": 7760,
      "complying": 7761,
      "remainder": 7762,
      "bedded": 7763,
      "handling": 7764,
      "marketed": 7765,
      "syrup": 7766,
      "packages": 7767,
      "mobil": 7768,
      "encrypted": 7769,
      "dedicated": 7770,
      "reinfor": 7771,
      "JavaScript": 7772,
      "expressly": 7773,
      "SMTP": 7774,
      "MEPs": 7775,
      "recruitment": 7776,
      "Accordingly": 7777,
      "quarter": 7778,
      "Transitional": 7779,
      "David": 7780,
      "Michael": 7781,
      "Thunderstorm": 7782,
      "techniques": 7783,
      ";.": 7784,
      "Dj": 7785,
      "Fri": 7786,
      "IDE": 7787,
      "Je": 7788,
      "Mus": 7789,
      "MER": 7790,
      "Pass": 7791,
      "Pos": 7792,
      "Ren": 7793,
      "Rural": 7794,
      "bul": 7795,
      "hi": 7796,
      "mits": 7797,
      "sens": 7798,
      "orrow": 7799,
      "stay": 7800,
      "seem": 7801,
      "ounce": 7802,
      "implied": 7803,
      "ife": 7804,
      "udes": 7805,
      "telec": 7806,
      "Review": 7807,
      "direction": 7808,
      "understood": 7809,
      "...)": 7810,
      "Ask": 7811,
      "ARD": 7812,
      "While": 7813,
      "highlight": 7814,
      "1305": 7815,
      "Query": 7816,
      "distinc": 7817,
      "Leave": 7818,
      "asked": 7819,
      "generally": 7820,
      "negotiation": 7821,
      "treated": 7822,
      "starts": 7823,
      "FREN": 7824,
      "shortcut": 7825,
      "Indiana": 7826,
      "Operations": 7827,
      "Slide": 7828,
      "Fields": 7829,
      "preserve": 7830,
      "Institutions": 7831,
      "retired": 7832,
      "Implementing": 7833,
      "securi": 7834,
      "River": 7835,
      "()": 7836,
      "FO": 7837,
      "Gold": 7838,
      "HEL": 7839,
      "NOR": 7840,
      "Ok": 7841,
      "Pilot": 7842,
      "Radi": 7843,
      "RGB": 7844,
      "TEN": 7845,
      "_Name": 7846,
      "flo": 7847,
      "kle": 7848,
      "navigation": 7849,
      "poultry": 7850,
      "preferential": 7851,
      "revoc": 7852,
      "enta": 7853,
      "assurance": 7854,
      "shap": 7855,
      "resil": 7856,
      "ador": 7857,
      "understand": 7858,
      "Const": 7859,
      "194": 7860,
      "ipedia": 7861,
      "built": 7862,
      "disabilities": 7863,
      "pressing": 7864,
      "dos": 7865,
      "periodic": 7866,
      "Exchange": 7867,
      "252": 7868,
      "RED": 7869,
      "Comp": 7870,
      "signing": 7871,
      "CHAN": 7872,
      "ITOR": 7873,
      "recover": 7874,
      "Append": 7875,
      "Poly": 7876,
      "offences": 7877,
      "Ground": 7878,
      "Good": 7879,
      "configured": 7880,
      "contractors": 7881,
      "Attende": 7882,
      "expertise": 7883,
      "survey": 7884,
      "Attachments": 7885,
      "Simple": 7886,
      "cutting": 7887,
      "satisfactory": 7888,
      "FINANC": 7889,
      "drugs": 7890,
      "fostering": 7891,
      "Deleted": 7892,
      "BOUR": 7893,
      "accredited": 7894,
      "excellence": 7895,
      "FILE": 7896,
      "eurship": 7897,
      "telecommun": 7898,
      "212": 7899,
      "211": 7900,
      "Det": 7901,
      "Hot": 7902,
      "Ku": 7903,
      "Kong": 7904,
      "Nomenclature": 7905,
      "Samba": 7906,
      "Year": 7907,
      "_e": 7908,
      "catch": 7909,
      "csv": 7910,
      "iving": 7911,
      "junction": 7912,
      "kg": 7913,
      "mn": 7914,
      "mbox": 7915,
      "random": 7916,
      "sis": 7917,
      "treaties": 7918,
      "rot": 7919,
      "arc": 7920,
      "icial": 7921,
      "bytes": 7922,
      "parking": 7923,
      "iga": 7924,
      "Country": 7925,
      "ewise": 7926,
      "commission": 7927,
      "Chart": 7928,
      "buf": 7929,
      "1049": 7930,
      "ventions": 7931,
      "ERC": 7932,
      "budgets": 7933,
      "1311": 7934,
      "Shows": 7935,
      "capita": 7936,
      "visited": 7937,
      "283": 7938,
      "tende": 7939,
      "surface": 7940,
      "connecting": 7941,
      "restricted": 7942,
      "considerations": 7943,
      "analog": 7944,
      "Publications": 7945,
      "subsidies": 7946,
      "metadata": 7947,
      "methodology": 7948,
      "Users": 7949,
      "Identif": 7950,
      "concentrated": 7951,
      "discuss": 7952,
      "preserved": 7953,
      "Visual": 7954,
      "breakdown": 7955,
      "ggs": 7956,
      "Implementation": 7957,
      "tuna": 7958,
      "usually": 7959,
      "Double": 7960,
      "Continue": 7961,
      "sanctions": 7962,
      "04": 7963,
      "216": 7964,
      "Hong": 7965,
      "Micro": 7966,
      "Ow": 7967,
      "Ru": 7968,
      "Rad": 7969,
      "SL": 7970,
      "Using": 7971,
      "UID": 7972,
      "Wizard": 7973,
      "fats": 7974,
      "hor": 7975,
      "”.": 7976,
      "themes": 7977,
      "lex": 7978,
      "veal": 7979,
      "adem": 7980,
      "adow": 7981,
      "Unless": 7982,
      "acced": 7983,
      "permission": 7984,
      "else": 7985,
      "loan": 7986,
      "boot": 7987,
      "Extra": 7988,
      "159": 7989,
      "therefrom": 7990,
      "ISS": 7991,
      "259": 7992,
      "spent": 7993,
      "barri": 7994,
      "UnitedKingdom": 7995,
      "originally": 7996,
      "1301": 7997,
      "assessed": 7998,
      "hope": 7999,
      "offset": 8000,
      "speak": 8001,
      "delivers": 8002,
      "plicit": 8003,
      "saw": 8004,
      "prohibitions": 8005,
      "Downloads": 8006,
      "supplementing": 8007,
      "challenge": 8008,
      "Running": 8009,
      "seats": 8010,
      "simplified": 8011,
      "figures": 8012,
      "Institute": 8013,
      "Required": 8014,
      "oxide": 8015,
      "Effect": 8016,
      "Given": 8017,
      "persist": 8018,
      "RECALLING": 8019,
      "FRENCH": 8020,
      "Brightness": 8021,
      "HIS": 8022,
      "Names": 8023,
      "Pod": 8024,
      "Sust": 8025,
      "TD": 8026,
      "Tun": 8027,
      "don": 8028,
      "ya": 8029,
      "ato": 8030,
      "rolling": 8031,
      "tored": 8032,
      "itness": 8033,
      "agen": 8034,
      "conciliation": 8035,
      "oted": 8036,
      "imper": 8037,
      "2022": 8038,
      "Reading": 8039,
      "cles": 8040,
      "decrease": 8041,
      "seri": 8042,
      "auton": 8043,
      "prise": 8044,
      "minority": 8045,
      "1965": 8046,
      "Shared": 8047,
      "154": 8048,
      "tifies": 8049,
      "224": 8050,
      "Comb": 8051,
      "rolled": 8052,
      "Princ": 8053,
      "Setting": 8054,
      "248": 8055,
      "MEMBER": 8056,
      "obliged": 8057,
      "allowances": 8058,
      "rows": 8059,
      "discre": 8060,
      "1978": 8061,
      "restriction": 8062,
      "Guide": 8063,
      "352": 8064,
      "fees": 8065,
      "feature": 8066,
      "Downloading": 8067,
      "Model": 8068,
      "Dublin": 8069,
      "correctly": 8070,
      "interventions": 8071,
      "purchas": 8072,
      "flows": 8073,
      "incentive": 8074,
      "retirement": 8075,
      "satellite": 8076,
      "Favor": 8077,
      "Bézier": 8078,
      "jeopard": 8079,
      "BOURG": 8080,
      "Sustain": 8081,
      "AU": 8082,
      "Saint": 8083,
      "Try": 8084,
      "_Image": 8085,
      "aj": 8086,
      "false": 8087,
      "hidden": 8088,
      "ona": 8089,
      "tile": 8090,
      "ander": 8091,
      "seeds": 8092,
      "metal": 8093,
      "withdrawn": 8094,
      "Step": 8095,
      "ids": 8096,
      "porters": 8097,
      "tude": 8098,
      "posit": 8099,
      "weighting": 8100,
      "Thumbnail": 8101,
      "Ankle": 8102,
      "moves": 8103,
      "Enh": 8104,
      "annels": 8105,
      "Except": 8106,
      "171": 8107,
      "Compr": 8108,
      "Discard": 8109,
      "267": 8110,
      "Respon": 8111,
      "provisionally": 8112,
      "divided": 8113,
      "Island": 8114,
      "Sending": 8115,
      "driving": 8116,
      "rainian": 8117,
      "temporarily": 8118,
      "businesses": 8119,
      "falls": 8120,
      "salaries": 8121,
      "renewal": 8122,
      "Identity": 8123,
      "Environmental": 8124,
      "grapes": 8125,
      "Organization": 8126,
      "consequence": 8127,
      "fleet": 8128,
      "Columns": 8129,
      "Slovakia": 8130,
      "modalities": 8131,
      "authenticity": 8132,
      "Subscribe": 8133,
      "occurrence": 8134,
      "CVS": 8135,
      "Nickname": 8136,
      "INSTITUTION": 8137,
      "World": 8138,
      "Mobile": 8139,
      "abulary": 8140,
      "released": 8141,
      "telecommunications": 8142,
      "Cir": 8143,
      "Hans": 8144,
      "I_mport": 8145,
      "Length": 8146,
      "Mil": 8147,
      "MFF": 8148,
      "Pick": 8149,
      "PDF": 8150,
      "RW": 8151,
      "_Select": 8152,
      "bian": 8153,
      "dum": 8154,
      "ease": 8155,
      "fers": 8156,
      "pn": 8157,
      "rors": 8158,
      "ano": 8159,
      "ora": 8160,
      "prospec": 8161,
      "emphas": 8162,
      "convert": 8163,
      "seed": 8164,
      "meter": 8165,
      "impartial": 8166,
      "acceding": 8167,
      "posure": 8168,
      "amma": 8169,
      "Assign": 8170,
      "Expression": 8171,
      "matched": 8172,
      "econds": 8173,
      "oker": 8174,
      "Showers": 8175,
      "playlist": 8176,
      "governors": 8177,
      "constitutes": 8178,
      "PARTIC": 8179,
      "belie": 8180,
      "Memos": 8181,
      "ILITY": 8182,
      "expect": 8183,
      "Paragraphs": 8184,
      "investigate": 8185,
      "alternates": 8186,
      "interpreted": 8187,
      "turnover": 8188,
      "irregularity": 8189,
      "trafficking": 8190,
      "ecosystem": 8191,
      "filling": 8192,
      "Expand": 8193,
      "spirit": 8194,
      "religion": 8195,
      "seriously": 8196,
      "autonom": 8197,
      "8a": 8198,
      "AB": 8199,
      "Cas": 8200,
      "Dif": 8201,
      "DER": 8202,
      "Distribu": 8203,
      "Dollar": 8204,
      "Fonts": 8205,
      "Ju": 8206,
      "LES": 8207,
      "Rail": 8208,
      "VES": 8209,
      "_T": 8210,
      "bv": 8211,
      "fetch": 8212,
      "flying": 8213,
      "hot": 8214,
      "ham": 8215,
      "histor": 8216,
      "rational": 8217,
      "west": 8218,
      "ani": 8219,
      "outhern": 8220,
      "ecture": 8221,
      "ague": 8222,
      "immigration": 8223,
      "Eurostat": 8224,
      "Countries": 8225,
      "owned": 8226,
      "preclude": 8227,
      "disability": 8228,
      "basin": 8229,
      "Devices": 8230,
      "acknow": 8231,
      "Execute": 8232,
      "frage": 8233,
      "254": 8234,
      "Boston": 8235,
      "trying": 8236,
      "Component": 8237,
      "facing": 8238,
      "273": 8239,
      "exceeded": 8240,
      "mistake": 8241,
      "Lead": 8242,
      "separated": 8243,
      "Scroll": 8244,
      "tons": 8245,
      "speech": 8246,
      "showing": 8247,
      "Linux": 8248,
      "helping": 8249,
      "suffrage": 8250,
      "storing": 8251,
      "pensions": 8252,
      "ocket": 8253,
      "subscribe": 8254,
      "delivering": 8255,
      "executable": 8256,
      "Disabled": 8257,
      "Created": 8258,
      "DUC": 8259,
      "flexibility": 8260,
      "trends": 8261,
      "DENMARK": 8262,
      "requisite": 8263,
      "FINANCIAL": 8264,
      "pository": 8265,
      "(#": 8266,
      "DN": 8267,
      "Fill": 8268,
      "Five": 8269,
      "Fetch": 8270,
      "Voc": 8271,
      "bes": 8272,
      "flav": 8273,
      "mile": 8274,
      "sample": 8275,
      "reforms": 8276,
      "alle": 8277,
      "esting": 8278,
      "anda": 8279,
      "stead": 8280,
      "empower": 8281,
      "conjunction": 8282,
      "metric": 8283,
      "rigend": 8284,
      "ches": 8285,
      "iden": 8286,
      "aba": 8287,
      "proven": 8288,
      "interbranch": 8289,
      "132": 8290,
      "134": 8291,
      "urrence": 8292,
      "INC": 8293,
      "lier": 8294,
      "liabilities": 8295,
      "regarded": 8296,
      "mainly": 8297,
      "legality": 8298,
      "245": 8299,
      "Also": 8300,
      "284": 8301,
      "Serial": 8302,
      "Intergovernmental": 8303,
      "Addresses": 8304,
      "situated": 8305,
      "tonn": 8306,
      "Law": 8307,
      "environmentally": 8308,
      "Certificates": 8309,
      "pensory": 8310,
      "Paul": 8311,
      "percentages": 8312,
      "dealing": 8313,
      "lodge": 8314,
      "Ready": 8315,
      "Operation": 8316,
      "migr": 8317,
      "modifying": 8318,
      "occupational": 8319,
      "consolidated": 8320,
      "COMMUNITY": 8321,
      "COMMUNITIES": 8322,
      "Matthias": 8323,
      "wheel": 8324,
      "simultaneous": 8325,
      "Freedoms": 8326,
      "arbitration": 8327,
      "accurate": 8328,
      "Scale": 8329,
      "LUX": 8330,
      "Methods": 8331,
      "workshops": 8332,
      "BELG": 8333,
      "Sustainable": 8334,
      "rigendum": 8335,
      "Ama": 8336,
      "Cover": 8337,
      "Ceu": 8338,
      "Diction": 8339,
      "Mount": 8340,
      "RAN": 8341,
      "WM": 8342,
      "_Last": 8343,
      "bra": 8344,
      "bio": 8345,
      "gt": 8346,
      "gre": 8347,
      "spa": 8348,
      "vary": 8349,
      "won": 8350,
      "wall": 8351,
      "isations": 8352,
      "oment": 8353,
      "sums": 8354,
      "convention": 8355,
      "reside": 8356,
      "ria": 8357,
      "chilled": 8358,
      "pool": 8359,
      "References": 8360,
      "Include": 8361,
      "comment": 8362,
      "fine": 8363,
      "minor": 8364,
      "controll": 8365,
      "poly": 8366,
      "Advis": 8367,
      "222": 8368,
      "gian": 8369,
      "medical": 8370,
      "examined": 8371,
      "Applet": 8372,
      "pansion": 8373,
      "expired": 8374,
      "EMBOURG": 8375,
      "reaching": 8376,
      "saver": 8377,
      "classes": 8378,
      "pipe": 8379,
      "Medium": 8380,
      "warrant": 8381,
      "svith": 8382,
      "graphical": 8383,
      "errors": 8384,
      "Processing": 8385,
      "synchron": 8386,
      "html": 8387,
      "thresholds": 8388,
      "admissible": 8389,
      "carriage": 8390,
      "Torrent": 8391,
      "vacancy": 8392,
      "Akon": 8393,
      "grains": 8394,
      "passenger": 8395,
      "Pattern": 8396,
      "probably": 8397,
      "neutral": 8398,
      "iphany": 8399,
      "terrorism": 8400,
      "Ukrainian": 8401,
      "neighbouring": 8402,
      "Scientific": 8403,
      "Groundwater": 8404,
      "discretion": 8405,
      "LUXEMBOURG": 8406,
      "Ceuta": 8407,
      ".\"": 8408,
      ";)": 8409,
      "BR": 8410,
      "Big": 8411,
      "Bond": 8412,
      "Da": 8413,
      "EPS": 8414,
      "FS": 8415,
      "Hex": 8416,
      "Ham": 8417,
      "PUR": 8418,
      "Rating": 8419,
      "Wallet": 8420,
      "_Go": 8421,
      "_Tools": 8422,
      "cou": 8423,
      "dest": 8424,
      "fem": 8425,
      "iproc": 8426,
      "vital": 8427,
      "tips": 8428,
      "titude": 8429,
      "roy": 8430,
      "ands": 8431,
      "adjudic": 8432,
      "urations": 8433,
      "Stri": 8434,
      "porary": 8435,
      "Repeat": 8436,
      "trading": 8437,
      "pled": 8438,
      "ECD": 8439,
      "ECE": 8440,
      "ipient": 8441,
      "applicants": 8442,
      "suppl": 8443,
      "ideas": 8444,
      "Decrease": 8445,
      "ventive": 8446,
      "books": 8447,
      "lik": 8448,
      "invite": 8449,
      "invitation": 8450,
      "linear": 8451,
      "capac": 8452,
      "Company": 8453,
      "initiate": 8454,
      "CO2": 8455,
      "contractual": 8456,
      "265": 8457,
      "Marie": 8458,
      "dependence": 8459,
      "Monte": 8460,
      "Types": 8461,
      "dictionary": 8462,
      "humanitarian": 8463,
      "receives": 8464,
      "equipped": 8465,
      "Connecting": 8466,
      "smaller": 8467,
      "appears": 8468,
      "functional": 8469,
      "IBNS": 8470,
      "Instruments": 8471,
      "PPP": 8472,
      "TRAN": 8473,
      "Products": 8474,
      "hectare": 8475,
      "platform": 8476,
      "resigns": 8477,
      "Administrative": 8478,
      "accuracy": 8479,
      "hydrogen": 8480,
      "blocking": 8481,
      "Extension": 8482,
      "compounds": 8483,
      "collaboration": 8484,
      "barriers": 8485,
      "%{": 8486,
      ",’": 8487,
      "214": 8488,
      "3D": 8489,
      "312": 8490,
      "Blog": 8491,
      "Educ": 8492,
      "GDM": 8493,
      "Ig": 8494,
      "Ky": 8495,
      "_Forward": 8496,
      "bing": 8497,
      "cat": 8498,
      "ees": 8499,
      "ires": 8500,
      "lie": 8501,
      "nomenclature": 8502,
      "ored": 8503,
      "oath": 8504,
      "rof": 8505,
      "sam": 8506,
      "ume": 8507,
      "leaving": 8508,
      "oules": 8509,
      "ombudsmen": 8510,
      "applet": 8511,
      "oll": 8512,
      "terday": 8513,
      "otton": 8514,
      "Unsupported": 8515,
      "abroad": 8516,
      "tele": 8517,
      "direc": 8518,
      "decline": 8519,
      "Regular": 8520,
      "prud": 8521,
      "1958": 8522,
      "wegian": 8523,
      "Through": 8524,
      "reless": 8525,
      "productivity": 8526,
      "dismis": 8527,
      "....................": 8528,
      "specification": 8529,
      "162": 8530,
      "pati": 8531,
      "exceptions": 8532,
      "rush": 8533,
      "examining": 8534,
      "grouping": 8535,
      "instal": 8536,
      "recovered": 8537,
      "Norwegian": 8538,
      "Pre_": 8539,
      "proceeding": 8540,
      "criterion": 8541,
      "recognized": 8542,
      "ynamic": 8543,
      "preparations": 8544,
      "Italic": 8545,
      "Backend": 8546,
      "aditions": 8547,
      "harmonised": 8548,
      "Market": 8549,
      "Malformed": 8550,
      "Lists": 8551,
      "Konsole": 8552,
      "lodging": 8553,
      "ULAR": 8554,
      "columns": 8555,
      "vegetable": 8556,
      "Yesterday": 8557,
      "Interest": 8558,
      "spool": 8559,
      "confidentiality": 8560,
      "Middle": 8561,
      "Removing": 8562,
      "UPON": 8563,
      "forthwith": 8564,
      "corridors": 8565,
      "Owner": 8566,
      "PARTICULAR": 8567,
      ".’": 8568,
      "Ep": 8569,
      "Hun": 8570,
      "KWord": 8571,
      "K3b": 8572,
      "Luc": 8573,
      "Mu": 8574,
      "Mad": 8575,
      "MON": 8576,
      "Optional": 8577,
      "Rate": 8578,
      "Smo": 8579,
      "_W": 8580,
      "_Fullscreen": 8581,
      "aking": 8582,
      "bis": 8583,
      "bri": 8584,
      "daily": 8585,
      "gallery": 8586,
      "len": 8587,
      "nish": 8588,
      "sender": 8589,
      "vide": 8590,
      "wood": 8591,
      "incomplete": 8592,
      "anger": 8593,
      "island": 8594,
      "Armen": 8595,
      "deals": 8596,
      "raf": 8597,
      "quit": 8598,
      "redund": 8599,
      "noted": 8600,
      "traditions": 8601,
      "owner": 8602,
      "ippet": 8603,
      "manual": 8604,
      "Ang": 8605,
      "programs": 8606,
      "izational": 8607,
      "253": 8608,
      "played": 8609,
      "animation": 8610,
      "signal": 8611,
      "Selector": 8612,
      "Clou": 8613,
      "249": 8614,
      "visits": 8615,
      "Appropri": 8616,
      "exclude": 8617,
      "offered": 8618,
      "suspensory": 8619,
      "preced": 8620,
      "Calcul": 8621,
      "sequence": 8622,
      "centres": 8623,
      "EMENT": 8624,
      "Translation": 8625,
      "Transparent": 8626,
      "auditing": 8627,
      "Documentation": 8628,
      "deems": 8629,
      "encouraged": 8630,
      "subscription": 8631,
      "Maintain": 8632,
      "fuels": 8633,
      "railway": 8634,
      "tags": 8635,
      "Buddy": 8636,
      "--------": 8637,
      "NOTE": 8638,
      "itaire": 8639,
      "spoken": 8640,
      "macroeconomic": 8641,
      "entrepreneurship": 8642,
      "Focus": 8643,
      "retrieve": 8644,
      "housing": 8645,
      "Possible": 8646,
      "Radius": 8647,
      "capacities": 8648,
      "06": 8649,
      "08": 8650,
      "800": 8651,
      "AA": 8652,
      "BD": 8653,
      "Bro": 8654,
      "Bec": 8655,
      "Clean": 8656,
      "D_": 8657,
      "Hu": 8658,
      "Kate": 8659,
      "Kam": 8660,
      "Mor": 8661,
      "TV": 8662,
      "XI": 8663,
      "big": 8664,
      "iary": 8665,
      "lump": 8666,
      "pd": 8667,
      "pun": 8668,
      "uter": 8669,
      "wai": 8670,
      "thumbnail": 8671,
      "shire": 8672,
      "states": 8673,
      "stating": 8674,
      "sun": 8675,
      "unread": 8676,
      "ride": 8677,
      "expansion": 8678,
      "deriving": 8679,
      "abil": 8680,
      "struct": 8681,
      "supports": 8682,
      "noise": 8683,
      "inequalities": 8684,
      "authorisations": 8685,
      "Acce": 8686,
      "ANY": 8687,
      "Example": 8688,
      "cape": 8689,
      "differ": 8690,
      "Alpha": 8691,
      "Highlighting": 8692,
      "RAW": 8693,
      "TAC": 8694,
      "TAKING": 8695,
      "Guidance": 8696,
      "Lake": 8697,
      "355": 8698,
      "Spam": 8699,
      "Very": 8700,
      "collect": 8701,
      "personality": 8702,
      "economies": 8703,
      "SCII": 8704,
      "Grad": 8705,
      "renewed": 8706,
      "Writing": 8707,
      "gradual": 8708,
      "constant": 8709,
      "comparison": 8710,
      "patterns": 8711,
      "fitted": 8712,
      "ethnic": 8713,
      "daemon": 8714,
      "belonging": 8715,
      "magaz": 8716,
      "sexual": 8717,
      "OMIC": 8718,
      "Virtual": 8719,
      "rooms": 8720,
      "coastal": 8721,
      "Question": 8722,
      "yleshe": 8723,
      "Fingerprint": 8724,
      "Letter": 8725,
      "Manufacture": 8726,
      "Suspend": 8727,
      "TABILITY": 8728,
      "Akonadi": 8729,
      "adjudicate": 8730,
      "021": 8731,
      "BU": 8732,
      "Bin": 8733,
      "Bet": 8734,
      "Fifth": 8735,
      "MT": 8736,
      "PER": 8737,
      "Sen": 8738,
      "Tob": 8739,
      "Wise": 8740,
      "_Address": 8741,
      "_Date": 8742,
      "_Rename": 8743,
      "mas": 8744,
      "ost": 8745,
      "zip": 8746,
      "inf": 8747,
      "icipal": 8748,
      "Arbit": 8749,
      "ilib": 8750,
      "atever": 8751,
      "cookies": 8752,
      "formulate": 8753,
      "refuse": 8754,
      "Nothing": 8755,
      "possession": 8756,
      "afford": 8757,
      "earlier": 8758,
      "preventive": 8759,
      "overview": 8760,
      "judges": 8761,
      "END": 8762,
      "caption": 8763,
      "approves": 8764,
      "contributes": 8765,
      "221": 8766,
      "Agenda": 8767,
      "281": 8768,
      "294": 8769,
      "equilib": 8770,
      "employers": 8771,
      "Finnish": 8772,
      "instances": 8773,
      "engaged": 8774,
      "measurement": 8775,
      "akh": 8776,
      "evaluating": 8777,
      "indicator": 8778,
      "1980": 8779,
      "fixes": 8780,
      "Defaults": 8781,
      "GroupWise": 8782,
      "calendars": 8783,
      "driven": 8784,
      "Freezing": 8785,
      "POSE": 8786,
      "IFIC": 8787,
      "Classic": 8788,
      "maps": 8789,
      "svh": 8790,
      "estimate": 8791,
      "Corrigendum": 8792,
      "citizenship": 8793,
      "watts": 8794,
      "Slideshow": 8795,
      "demonstrate": 8796,
      "REGARD": 8797,
      "carriers": 8798,
      "crops": 8799,
      "Prompt": 8800,
      "intermediaries": 8801,
      "Committees": 8802,
      "confirmed": 8803,
      "sweet": 8804,
      "reinforcing": 8805,
      "Dictionary": 8806,
      "DI": 8807,
      "Food": 8808,
      "Ros": 8809,
      "SQ": 8810,
      "Vo": 8811,
      "_Junk": 8812,
      "_Reply": 8813,
      "centi": 8814,
      "fire": 8815,
      "hop": 8816,
      "iel": 8817,
      "jar": 8818,
      "mime": 8819,
      "moment": 8820,
      "nt": 8821,
      "ral": 8822,
      "uistic": 8823,
      "wind": 8824,
      "zoom": 8825,
      "tish": 8826,
      "reactor": 8827,
      "oro": 8828,
      "alone": 8829,
      "editing": 8830,
      "icing": 8831,
      "shape": 8832,
      "beef": 8833,
      "unemployed": 8834,
      "concept": 8835,
      "otechn": 8836,
      "chat": 8837,
      "irable": 8838,
      "claimed": 8839,
      "193": 8840,
      "Third": 8841,
      "inea": 8842,
      "viewer": 8843,
      "filters": 8844,
      "Ext": 8845,
      "Anniversary": 8846,
      "terminals": 8847,
      "economically": 8848,
      "REA": 8849,
      "virtual": 8850,
      "ercise": 8851,
      "27a": 8852,
      "288": 8853,
      "examples": 8854,
      "fermentation": 8855,
      "Events": 8856,
      "Maxim": 8857,
      "versions": 8858,
      "discard": 8859,
      "tabled": 8860,
      "Upper": 8861,
      "spelling": 8862,
      "deleting": 8863,
      "handled": 8864,
      "continuation": 8865,
      "continuity": 8866,
      "continuous": 8867,
      "attery": 8868,
      "analyses": 8869,
      "experiences": 8870,
      "OLV": 8871,
      "Peter": 8872,
      "Driver": 8873,
      "codes": 8874,
      "Define": 8875,
      "Training": 8876,
      "Presentation": 8877,
      "adversely": 8878,
      "decommission": 8879,
      "Tomorrow": 8880,
      "frontiers": 8881,
      "GUI": 8882,
      "identical": 8883,
      "Education": 8884,
      "magazine": 8885,
      "Arbitration": 8886,
      "322": 8887,
      "Ba": 8888,
      "Bay": 8889,
      "Cards": 8890,
      "Citiz": 8891,
      "FITNESS": 8892,
      "His": 8893,
      "JO": 8894,
      "LIST": 8895,
      "NAL": 8896,
      "brea": 8897,
      "cotton": 8898,
      "jack": 8899,
      "score": 8900,
      "vailing": 8901,
      "witness": 8902,
      "}\"": 8903,
      "án": 8904,
      "heat": 8905,
      "stabil": 8906,
      "seg": 8907,
      "depth": 8908,
      "iron": 8909,
      "irrevoc": 8910,
      "202": 8911,
      "essor": 8912,
      "blog": 8913,
      "Rel": 8914,
      "endor": 8915,
      "Invert": 8916,
      "trace": 8917,
      "comprises": 8918,
      "outcomes": 8919,
      "istan": 8920,
      "internet": 8921,
      "providers": 8922,
      "whereas": 8923,
      "1234": 8924,
      "lawful": 8925,
      "lief": 8926,
      "Expi": 8927,
      "frag": 8928,
      "directors": 8929,
      "OpenPGP": 8930,
      "secondary": 8931,
      "toral": 8932,
      "292": 8933,
      "298": 8934,
      "Errors": 8935,
      "Conflic": 8936,
      "ologies": 8937,
      "Finance": 8938,
      "facturing": 8939,
      "differenti": 8940,
      "simply": 8941,
      "indicating": 8942,
      "EAGF": 8943,
      "TAIN": 8944,
      "LaTeX": 8945,
      "Systems": 8946,
      "increases": 8947,
      "debtor": 8948,
      "prevented": 8949,
      "sheep": 8950,
      "Permissions": 8951,
      "Overseas": 8952,
      "Duplicate": 8953,
      "Syntax": 8954,
      "Joh": 8955,
      "Saver": 8956,
      "Days": 8957,
      "KSpread": 8958,
      "conflicts": 8959,
      "Deleting": 8960,
      "ecosystems": 8961,
      "WITHOUT": 8962,
      "WARRAN": 8963,
      "redistribute": 8964,
      "Growth": 8965,
      "trigger": 8966,
      "Stock": 8967,
      "grassland": 8968,
      "carcasses": 8969,
      "MERCHAN": 8970,
      "Identifier": 8971,
      "ISSION": 8972,
      "warranty": 8973,
      "PURPOSE": 8974,
      "likewise": 8975,
      "Because": 8976,
      "Gradient": 8977,
      "WARRANTY": 8978,
      "MERCHANTABILITY": 8979,
      "\").": 8980,
      "217": 8981,
      "CER": 8982,
      "Clock": 8983,
      "CESS": 8984,
      "Catal": 8985,
      "F_": 8986,
      "Jump": 8987,
      "MAND": 8988,
      "Som": 8989,
      "Soci": 8990,
      "Ze": 8991,
      "_s": 8992,
      "_Un": 8993,
      "_Message": 8994,
      "burn": 8995,
      "eggs": 8996,
      "ien": 8997,
      "soc": 8998,
      "say": 8999,
      "threads": 9000,
      "antic": 9001,
      "remark": 9002,
      "orn": 9003,
      "atus": 9004,
      "attr": 9005,
      "toler": 9006,
      "ackets": 9007,
      "forced": 9008,
      "heres": 9009,
      "explicit": 9010,
      "Storage": 9011,
      "whatever": 9012,
      "notation": 9013,
      "umes": 9014,
      "lect": 9015,
      "ECT": 9016,
      "inty": 9017,
      "augh": 9018,
      "miner": 9019,
      "EUC": 9020,
      "Chapters": 9021,
      "aven": 9022,
      "mann": 9023,
      "disease": 9024,
      "guards": 9025,
      "Deg": 9026,
      "okie": 9027,
      "00000": 9028,
      "fulfilling": 9029,
      "duplicate": 9030,
      "regulated": 9031,
      "257": 9032,
      "247": 9033,
      "275": 9034,
      "1974": 9035,
      "precated": 9036,
      "municipal": 9037,
      "configurations": 9038,
      "manufacturing": 9039,
      "Currently": 9040,
      "linguistic": 9041,
      "Supported": 9042,
      "Amend": 9043,
      "geographic": 9044,
      "mobile": 9045,
      "convene": 9046,
      "Words": 9047,
      "advantages": 9048,
      "awarded": 9049,
      "Surin": 9050,
      "Floor": 9051,
      "cancelled": 9052,
      "aggregate": 9053,
      "violence": 9054,
      "Franklin": 9055,
      "Printing": 9056,
      "FERRED": 9057,
      "frequency": 9058,
      "nationally": 9059,
      "KTTS": 9060,
      "flavour": 9061,
      "';": 9062,
      "Ali": 9063,
      "Bog": 9064,
      "Bah": 9065,
      "Drug": 9066,
      "Fig": 9067,
      "Hidden": 9068,
      "Its": 9069,
      "KOffice": 9070,
      "Mig": 9071,
      "PM": 9072,
      "Sil": 9073,
      "Sources": 9074,
      "Saved": 9075,
      "Would": 9076,
      "WOR": 9077,
      "_Password": 9078,
      "ki": 9079,
      "lled": 9080,
      "lending": 9081,
      "money": 9082,
      "pure": 9083,
      "thread": 9084,
      "indi": 9085,
      "anta": 9086,
      "tometers": 9087,
      "enty": 9088,
      "resolutions": 9089,
      "explan": 9090,
      "berg": 9091,
      "tainty": 9092,
      "igo": 9093,
      "Count": 9094,
      "Inactive": 9095,
      "recital": 9096,
      "upper": 9097,
      "elong": 9098,
      "certainty": 9099,
      "Thom": 9100,
      "nothing": 9101,
      "publicly": 9102,
      "countdown": 9103,
      "INTO": 9104,
      "1698": 9105,
      "desirable": 9106,
      "determines": 9107,
      "270": 9108,
      "Contribu": 9109,
      "Viet": 9110,
      "IDER": 9111,
      "Mah": 9112,
      "1987": 9113,
      "PRODUC": 9114,
      "IVE": 9115,
      "coverage": 9116,
      "feas": 9117,
      "milest": 9118,
      "generic": 9119,
      "Supplement": 9120,
      "oliday": 9121,
      "judgments": 9122,
      "CONSIDER": 9123,
      "Temporary": 9124,
      "dissemin": 9125,
      "Organizational": 9126,
      "Sheet": 9127,
      "flags": 9128,
      "havi": 9129,
      "Shortcut": 9130,
      "Croatian": 9131,
      "argument": 9132,
      "Cursor": 9133,
      "Receiving": 9134,
      "rapidly": 9135,
      "Electr": 9136,
      "Studies": 9137,
      "GRAND": 9138,
      "heritage": 9139,
      "Integrated": 9140,
      "assume": 9141,
      "Canceled": 9142,
      "securities": 9143,
      "Distribution": 9144,
      "Epiphany": 9145,
      "02110": 9146,
      "Evalu": 9147,
      "Jan": 9148,
      "Kit": 9149,
      "PH": 9150,
      "_Do": 9151,
      "_Window": 9152,
      "ae": 9153,
      "came": 9154,
      "journal": 9155,
      "oa": 9156,
      "sper": 9157,
      "spark": 9158,
      "yes": 9159,
      "ype": 9160,
      "inactive": 9161,
      "removing": 9162,
      "edge": 9163,
      "ingual": 9164,
      "iter": 9165,
      "apol": 9166,
      "append": 9167,
      "ola": 9168,
      "uler": 9169,
      "quad": 9170,
      "verified": 9171,
      "acco": 9172,
      "divers": 9173,
      "Contr": 9174,
      "assembly": 9175,
      "1951": 9176,
      "prime": 9177,
      "aves": 9178,
      "Anal": 9179,
      "disti": 9180,
      "TIVES": 9181,
      "ERA": 9182,
      "Separ": 9183,
      "nalina": 9184,
      "ROS": 9185,
      "ometers": 9186,
      "spheres": 9187,
      "prompt": 9188,
      "topes": 9189,
      "bars": 9190,
      "Resume": 9191,
      "originates": 9192,
      "ontally": 9193,
      "attend": 9194,
      "offee": 9195,
      "Characters": 9196,
      "missible": 9197,
      "Scanning": 9198,
      "showers": 9199,
      "orizontally": 9200,
      "considering": 9201,
      "websites": 9202,
      "Abort": 9203,
      "continuing": 9204,
      "COMMISSION": 9205,
      "solemn": 9206,
      "labels": 9207,
      "declarant": 9208,
      "Capital": 9209,
      "advantage": 9210,
      "synthe": 9211,
      "gainful": 9212,
      "Privileges": 9213,
      "degrees": 9214,
      "Drizzle": 9215,
      "stopped": 9216,
      "Effects": 9217,
      "Burning": 9218,
      "SHA1": 9219,
      "liberalisation": 9220,
      "Artist": 9221,
      "British": 9222,
      "Korean": 9223,
      "imperative": 9224,
      "EPSO": 9225,
      "Ignalina": 9226,
      "instalments": 9227,
      "Maintainer": 9228,
      "svhich": 9229,
      "329": 9230,
      "Average": 9231,
      "CED": 9232,
      "Fixed": 9233,
      "Gad": 9234,
      "Jam": 9235,
      "KOrganizer": 9236,
      "Lond": 9237,
      "Mex": 9238,
      "Mak": 9239,
      "Nord": 9240,
      "OTHER": 9241,
      "OECD": 9242,
      "Pel": 9243,
      "Sar": 9244,
      "Sand": 9245,
      "SEA": 9246,
      "Wind": 9247,
      "XMP": 9248,
      "_Not": 9249,
      "_ISO": 9250,
      "_IBM": 9251,
      "ny": 9252,
      "oter": 9253,
      "pig": 9254,
      "wax": 9255,
      "’).": 9256,
      "replacing": 9257,
      "alpha": 9258,
      "atar": 9259,
      "oured": 9260,
      "stable": 9261,
      "emo": 9262,
      "una": 9263,
      "adver": 9264,
      "aming": 9265,
      "ishing": 9266,
      "refusal": 9267,
      "rendered": 9268,
      "ups": 9269,
      "ogn": 9270,
      "intermediate": 9271,
      "concerted": 9272,
      "wherever": 9273,
      "Shape": 9274,
      "Exists": 9275,
      "unctions": 9276,
      "pursuit": 9277,
      "levy": 9278,
      "ENI": 9279,
      "trail": 9280,
      "mainstream": 9281,
      "frameworks": 9282,
      "Composer": 9283,
      "evol": 9284,
      "308": 9285,
      "Collapse": 9286,
      "topic": 9287,
      "filesystem": 9288,
      "_Bay": 9289,
      "highl": 9290,
      "1308": 9291,
      "imeters": 9292,
      "offence": 9293,
      "dependent": 9294,
      "Defence": 9295,
      "harves": 9296,
      "Meta": 9297,
      "garian": 9298,
      "Invest": 9299,
      "USTR": 9300,
      "URLs": 9301,
      "sounds": 9302,
      "justify": 9303,
      "Prime": 9304,
      "voted": 9305,
      "packaging": 9306,
      "suspending": 9307,
      "Profiles": 9308,
      "digits": 9309,
      "infringements": 9310,
      "Visible": 9311,
      "borne": 9312,
      "Solitaire": 9313,
      "machines": 9314,
      "arbitrary": 9315,
      "copies": 9316,
      "Received": 9317,
      "Handbook": 9318,
[...]
